#ifndef SINE_MODEL_H
#define SINE_MODEL_H


unsigned int sine_model_len = 2688;
unsigned char sine_model[] = {
 0x1c, 0x00, 0x00, 0x00, 0x54, 0x46, 0x4c, 0x33, 0x14, 0x00, 0x20, 0x00,
  0x1c, 0x00, 0x18, 0x00, 0x14, 0x00, 0x10, 0x00, 0x0c, 0x00, 0x00, 0x00,
  0x08, 0x00, 0x04, 0x00, 0x14, 0x00, 0x00, 0x00, 0x1c, 0x00, 0x00, 0x00,
  0x90, 0x00, 0x00, 0x00, 0xe8, 0x00, 0x00, 0x00, 0x50, 0x06, 0x00, 0x00,
  0x60, 0x06, 0x00, 0x00, 0x2c, 0x0a, 0x00, 0x00, 0x03, 0x00, 0x00, 0x00,
  0x01, 0x00, 0x00, 0x00, 0x10, 0x00, 0x00, 0x00, 0x00, 0x00, 0x0a, 0x00,
  0x10, 0x00, 0x0c, 0x00, 0x08, 0x00, 0x04, 0x00, 0x0a, 0x00, 0x00, 0x00,
  0x0c, 0x00, 0x00, 0x00, 0x1c, 0x00, 0x00, 0x00, 0x38, 0x00, 0x00, 0x00,
  0x0f, 0x00, 0x00, 0x00, 0x73, 0x65, 0x72, 0x76, 0x69, 0x6e, 0x67, 0x5f,
  0x64, 0x65, 0x66, 0x61, 0x75, 0x6c, 0x74, 0x00, 0x01, 0x00, 0x00, 0x00,
  0x04, 0x00, 0x00, 0x00, 0x98, 0xff, 0xff, 0xff, 0x06, 0x00, 0x00, 0x00,
  0x04, 0x00, 0x00, 0x00, 0x07, 0x00, 0x00, 0x00, 0x64, 0x65, 0x6e, 0x73,
  0x65, 0x5f, 0x32, 0x00, 0x01, 0x00, 0x00, 0x00, 0x04, 0x00, 0x00, 0x00,
  0x7a, 0xfa, 0xff, 0xff, 0x04, 0x00, 0x00, 0x00, 0x0b, 0x00, 0x00, 0x00,
  0x64, 0x65, 0x6e, 0x73, 0x65, 0x5f, 0x69, 0x6e, 0x70, 0x75, 0x74, 0x00,
  0x02, 0x00, 0x00, 0x00, 0x34, 0x00, 0x00, 0x00, 0x04, 0x00, 0x00, 0x00,
  0xdc, 0xff, 0xff, 0xff, 0x09, 0x00, 0x00, 0x00, 0x04, 0x00, 0x00, 0x00,
  0x13, 0x00, 0x00, 0x00, 0x43, 0x4f, 0x4e, 0x56, 0x45, 0x52, 0x53, 0x49,
  0x4f, 0x4e, 0x5f, 0x4d, 0x45, 0x54, 0x41, 0x44, 0x41, 0x54, 0x41, 0x00,
  0x08, 0x00, 0x0c, 0x00, 0x08, 0x00, 0x04, 0x00, 0x08, 0x00, 0x00, 0x00,
  0x08, 0x00, 0x00, 0x00, 0x04, 0x00, 0x00, 0x00, 0x13, 0x00, 0x00, 0x00,
  0x6d, 0x69, 0x6e, 0x5f, 0x72, 0x75, 0x6e, 0x74, 0x69, 0x6d, 0x65, 0x5f,
  0x76, 0x65, 0x72, 0x73, 0x69, 0x6f, 0x6e, 0x00, 0x0a, 0x00, 0x00, 0x00,
  0x64, 0x05, 0x00, 0x00, 0x5c, 0x05, 0x00, 0x00, 0x0c, 0x05, 0x00, 0x00,
  0xf4, 0x00, 0x00, 0x00, 0xa4, 0x00, 0x00, 0x00, 0x9c, 0x00, 0x00, 0x00,
  0x94, 0x00, 0x00, 0x00, 0x8c, 0x00, 0x00, 0x00, 0x6c, 0x00, 0x00, 0x00,
  0x04, 0x00, 0x00, 0x00, 0x1a, 0xfb, 0xff, 0xff, 0x04, 0x00, 0x00, 0x00,
  0x58, 0x00, 0x00, 0x00, 0x0c, 0x00, 0x00, 0x00, 0x08, 0x00, 0x0e, 0x00,
  0x08, 0x00, 0x04, 0x00, 0x08, 0x00, 0x00, 0x00, 0x10, 0x00, 0x00, 0x00,
  0x28, 0x00, 0x00, 0x00, 0x00, 0x00, 0x06, 0x00, 0x08, 0x00, 0x04, 0x00,
  0x06, 0x00, 0x00, 0x00, 0x04, 0x00, 0x00, 0x00, 0x01, 0x00, 0x00, 0x00,
  0xea, 0x03, 0x00, 0x00, 0x00, 0x00, 0x0a, 0x00, 0x10, 0x00, 0x0c, 0x00,
  0x08, 0x00, 0x04, 0x00, 0x0a, 0x00, 0x00, 0x00, 0x02, 0x00, 0x00, 0x00,
  0x02, 0x00, 0x00, 0x00, 0x04, 0x00, 0x00, 0x00, 0x05, 0x00, 0x00, 0x00,
  0x32, 0x2e, 0x39, 0x2e, 0x31, 0x00, 0x00, 0x00, 0x7e, 0xfb, 0xff, 0xff,
  0x04, 0x00, 0x00, 0x00, 0x10, 0x00, 0x00, 0x00, 0x31, 0x2e, 0x35, 0x2e,
  0x30, 0x00, 0x00, 0x00, 0x00, 0x00, 0x00, 0x00, 0x00, 0x00, 0x00, 0x00,
  0x94, 0xf7, 0xff, 0xff, 0x98, 0xf7, 0xff, 0xff, 0x9c, 0xf7, 0xff, 0xff,
  0xa6, 0xfb, 0xff, 0xff, 0x04, 0x00, 0x00, 0x00, 0x40, 0x00, 0x00, 0x00,
  0xb0, 0x3d, 0xc0, 0x3d, 0xc0, 0x6d, 0x84, 0x3d, 0x22, 0xb7, 0x0f, 0xbf,
  0x58, 0x86, 0x03, 0xbe, 0x42, 0xff, 0xf6, 0xbe, 0xb3, 0x43, 0xef, 0xbe,
  0x7e, 0x66, 0xf9, 0xbe, 0xc8, 0x78, 0x19, 0xbe, 0xa8, 0xce, 0x92, 0xbe,
  0xa0, 0xdb, 0xae, 0x3e, 0x84, 0x44, 0x09, 0x3f, 0xa0, 0xfc, 0xf8, 0xbc,
  0x70, 0xdb, 0x0f, 0xbf, 0x6b, 0x04, 0xdd, 0xbe, 0x20, 0x23, 0x26, 0x3d,
  0x74, 0xcf, 0xcc, 0xbe, 0xf2, 0xfb, 0xff, 0xff, 0x04, 0x00, 0x00, 0x00,
  0x00, 0x04, 0x00, 0x00, 0xb4, 0x4a, 0xe5, 0x3d, 0xc6, 0xd2, 0x49, 0x3e,
  0x27, 0x8f, 0xa1, 0xbe, 0xdd, 0x06, 0xcd, 0x3e, 0x60, 0xa8, 0xa3, 0xbc,
  0x60, 0xb3, 0x95, 0x3c, 0x4e, 0x25, 0x98, 0xbe, 0xf4, 0xd5, 0xe1, 0xbd,
  0x10, 0x38, 0xc9, 0x3c, 0x69, 0x0a, 0x6f, 0xbe, 0x7f, 0xc6, 0xa1, 0x3e,
  0xea, 0xb4, 0x7b, 0x3e, 0x17, 0x8d, 0xd1, 0x3e, 0x6b, 0xaa, 0xab, 0xbe,
  0x4a, 0xf9, 0x25, 0x3e, 0xee, 0x11, 0x52, 0x3e, 0x2e, 0xf8, 0xdb, 0xbe,
  0xa0, 0xc7, 0xbf, 0xbc, 0xbc, 0xac, 0xb6, 0xbe, 0x6b, 0x92, 0xdd, 0xbe,
  0x4a, 0xca, 0x5f, 0x3e, 0x89, 0x07, 0xa8, 0xbe, 0xa0, 0x48, 0x7d, 0x3c,
  0x1d, 0xe5, 0xa3, 0x3e, 0xe2, 0x20, 0x29, 0x3e, 0x9a, 0x7a, 0x15, 0x3e,
  0xac, 0xd3, 0xcc, 0xbe, 0x54, 0xa4, 0xbb, 0x3d, 0x18, 0x5c, 0x32, 0x3d,
  0xd2, 0x91, 0xbe, 0xbe, 0x8f, 0xd8, 0x90, 0x3e, 0x1a, 0x5b, 0x46, 0x3e,
  0x0d, 0xb8, 0x68, 0xbe, 0xd2, 0xb7, 0x25, 0x3e, 0x03, 0x7c, 0xd6, 0xbe,
  0xfe, 0x8f, 0x0d, 0xbe, 0x7a, 0xd0, 0x45, 0x3e, 0x44, 0x88, 0xb4, 0x3d,
  0x76, 0xa8, 0x13, 0x3e, 0x0c, 0xdd, 0x93, 0xbd, 0x0f, 0xc7, 0x9b, 0x3e,
  0x23, 0x1c, 0x62, 0xbe, 0xe9, 0x1b, 0xbc, 0x3e, 0x52, 0x0d, 0x0b, 0xbe,
  0x79, 0xbe, 0xa4, 0x3e, 0xe6, 0xb5, 0x49, 0x3e, 0xeb, 0xb5, 0xb8, 0x3e,
  0xcc, 0x35, 0xaa, 0xbd, 0x96, 0xdc, 0x34, 0x3e, 0xa0, 0xf2, 0x2d, 0x3c,
  0x30, 0x41, 0xac, 0xbe, 0xc0, 0xaf, 0x88, 0xbd, 0x09, 0xc3, 0x9c, 0x3e,
  0xe9, 0x20, 0x97, 0x3e, 0x7e, 0xeb, 0x28, 0xbe, 0xf6, 0x0a, 0xb0, 0xbe,
  0xb0, 0xc6, 0xdd, 0xbc, 0x50, 0x40, 0x90, 0xbe, 0xd8, 0x23, 0x68, 0x3d,
  0xe2, 0x32, 0xb9, 0xbe, 0xb0, 0x40, 0xa5, 0x3c, 0x97, 0xbd, 0x8c, 0x3e,
  0x3a, 0x8e, 0x12, 0x3e, 0x76, 0xeb, 0x18, 0x3e, 0x66, 0xeb, 0x02, 0x3e,
  0x1a, 0xff, 0x22, 0x3e, 0xd3, 0x55, 0xb2, 0x3e, 0xe0, 0x55, 0x37, 0x3c,
  0x8f, 0x54, 0x94, 0x3e, 0x60, 0xd2, 0x98, 0xbe, 0x9a, 0xb3, 0x29, 0x3e,
  0x24, 0x64, 0x96, 0xbd, 0x6a, 0x71, 0x9c, 0xbe, 0x24, 0xdc, 0x94, 0x3d,
  0x80, 0xed, 0x55, 0x3d, 0x47, 0xa8, 0xb0, 0xbe, 0x9e, 0x5a, 0x3f, 0x3e,
  0xb0, 0x9e, 0xd0, 0x3c, 0x69, 0xb5, 0x8f, 0x3e, 0x43, 0x05, 0x5c, 0xbe,
  0x12, 0x3b, 0x2a, 0x3e, 0x7c, 0xd7, 0xa7, 0x3d, 0x8c, 0xaa, 0x95, 0xbe,
  0xf4, 0x7c, 0x19, 0xbe, 0x30, 0x1a, 0x90, 0xbd, 0x2f, 0xbb, 0xab, 0x3e,
  0x14, 0x1f, 0xe2, 0xbd, 0x80, 0x1d, 0x88, 0xbb, 0x2b, 0x99, 0xa1, 0x3e,
  0xd6, 0x98, 0x86, 0xbe, 0x36, 0x55, 0x75, 0x3e, 0xc5, 0x67, 0x89, 0x3e,
  0xf2, 0x89, 0x0c, 0x3e, 0xb3, 0x66, 0x9f, 0x3e, 0xb2, 0x17, 0x94, 0xbe,
  0x32, 0x27, 0x42, 0x3e, 0x97, 0x8d, 0xb4, 0x3e, 0xdb, 0x25, 0xd8, 0x3e,
  0x6a, 0x87, 0x6b, 0x3e, 0xfd, 0xac, 0x81, 0x3e, 0x9d, 0xd1, 0x8b, 0x3e,
  0xca, 0x48, 0xc8, 0xbe, 0x3b, 0x70, 0x7b, 0xbe, 0x66, 0xe8, 0x63, 0x3e,
  0xe0, 0x69, 0xf9, 0x3c, 0xe8, 0x2b, 0x7b, 0x3d, 0x8a, 0xb0, 0xaf, 0xbe,
  0xec, 0xec, 0x88, 0xbd, 0x34, 0x1c, 0x8d, 0x3d, 0xc5, 0x9d, 0xd5, 0x3e,
  0x2e, 0x97, 0x28, 0x3e, 0xd6, 0xb8, 0x8b, 0xbe, 0x9c, 0xe8, 0xf7, 0xbd,
  0x9a, 0x73, 0x21, 0x3e, 0x0a, 0x42, 0x71, 0x3e, 0xf0, 0xfa, 0xd0, 0xbc,
  0x59, 0xe7, 0x8b, 0x3e, 0xea, 0x7d, 0x79, 0x3e, 0x43, 0x35, 0x8f, 0x3e,
  0x30, 0xe2, 0x4e, 0xbe, 0x3c, 0xa5, 0x5f, 0xbe, 0xaf, 0xe9, 0xd8, 0xbe,
  0x49, 0x0d, 0xa8, 0x3e, 0x3f, 0x6d, 0x8d, 0x3e, 0xbc, 0x16, 0xd6, 0x3d,
  0x11, 0xc7, 0xa1, 0x3e, 0x38, 0xe9, 0x1e, 0x3d, 0xc3, 0x36, 0xd7, 0x3e,
  0x56, 0x30, 0x71, 0x3e, 0xba, 0x81, 0xa8, 0xbe, 0xf5, 0x7b, 0x95, 0xbe,
  0xe2, 0xde, 0x4b, 0xbe, 0x13, 0xcf, 0x89, 0xbe, 0x23, 0x1b, 0xbb, 0x3e,
  0x5c, 0xba, 0xf5, 0x3d, 0x92, 0x82, 0xcb, 0xbe, 0x98, 0x1f, 0x32, 0x3d,
  0x7c, 0xfb, 0xab, 0xbe, 0x99, 0x62, 0xa2, 0xbe, 0xf7, 0x43, 0xcc, 0x3e,
  0x28, 0x61, 0xb6, 0xbd, 0x3c, 0x9b, 0xbb, 0x3d, 0x5e, 0xe1, 0xd4, 0xbe,
  0x84, 0x69, 0xc2, 0x3d, 0x7d, 0x59, 0xa9, 0x3e, 0xeb, 0x7e, 0x80, 0xbe,
  0xaa, 0x14, 0x04, 0xbe, 0xd6, 0x20, 0x7e, 0x3e, 0x0c, 0x04, 0x45, 0xbe,
  0xb6, 0xc0, 0x3b, 0x3e, 0x19, 0xcb, 0xd0, 0x3e, 0x22, 0xbb, 0x38, 0x3e,
  0x75, 0x1e, 0xbd, 0x3e, 0xdf, 0xde, 0xb1, 0xbe, 0x86, 0xe6, 0x27, 0x3e,
  0x9d, 0x7e, 0xc7, 0x3e, 0x3b, 0x75, 0x9a, 0xbe, 0x60, 0xa7, 0x2e, 0x3d,
  0xa2, 0x85, 0x27, 0xbe, 0xc0, 0x8e, 0x8e, 0xbc, 0x34, 0x5d, 0xba, 0xbe,
  0xad, 0xe6, 0xdc, 0x3e, 0x84, 0x0f, 0xda, 0xbd, 0x80, 0x48, 0xec, 0xbb,
  0xbe, 0xdb, 0x70, 0x3e, 0xa7, 0xc0, 0x87, 0x3e, 0x80, 0xd3, 0xe0, 0xbd,
  0x8b, 0xa6, 0x8b, 0x3e, 0x79, 0x04, 0xbc, 0x3e, 0x46, 0xa6, 0x1d, 0xbe,
  0x3d, 0x6f, 0xd8, 0x3e, 0x96, 0xe4, 0x05, 0x3e, 0xb8, 0x56, 0x1c, 0x3d,
  0x24, 0x76, 0x95, 0xbd, 0xcc, 0x0c, 0xaf, 0x3d, 0x70, 0x85, 0xc8, 0xbd,
  0x78, 0x95, 0xba, 0xbd, 0xd4, 0xc0, 0xbd, 0x3d, 0x56, 0xb2, 0xa1, 0xbe,
  0x38, 0xb6, 0x40, 0xbe, 0x80, 0x17, 0x67, 0x3c, 0x0a, 0x33, 0x9b, 0xbe,
  0x90, 0xac, 0xb3, 0x3c, 0xba, 0x15, 0xaa, 0xbe, 0xc7, 0xdb, 0xa8, 0x3e,
  0x6a, 0xc6, 0xba, 0xbe, 0xe9, 0xf9, 0x6d, 0xbe, 0xbc, 0x82, 0xfc, 0x3d,
  0x70, 0x90, 0xd7, 0xbd, 0x9e, 0x71, 0x9f, 0xbe, 0x41, 0x65, 0xa3, 0x3e,
  0x0d, 0x68, 0x92, 0x3e, 0x5a, 0x02, 0x5d, 0x3e, 0xfd, 0x76, 0x88, 0x3e,
  0x2b, 0x1f, 0xcb, 0x3e, 0xdd, 0x06, 0x82, 0xbe, 0x48, 0xd0, 0x3f, 0xbd,
  0x23, 0x6c, 0x82, 0x3e, 0xe3, 0x45, 0xa7, 0x3e, 0x18, 0xae, 0x12, 0x3d,
  0xe4, 0xbb, 0xb4, 0x3d, 0x8a, 0x20, 0x29, 0x3e, 0x7a, 0x84, 0x99, 0xbe,
  0x8f, 0x78, 0xb4, 0x3e, 0x19, 0x96, 0x46, 0xbe, 0x40, 0x61, 0xba, 0x3c,
  0x25, 0xa6, 0xcb, 0x3e, 0xe9, 0x13, 0x6f, 0xbe, 0xba, 0xc0, 0x25, 0xbe,
  0x57, 0x39, 0x5b, 0xbe, 0x58, 0xd2, 0x73, 0xbd, 0x87, 0x87, 0xc1, 0xbe,
  0xef, 0xc1, 0x9d, 0x3e, 0x6b, 0xa1, 0xab, 0x3e, 0x68, 0x91, 0xbf, 0xbe,
  0x94, 0x31, 0xb0, 0x3d, 0x59, 0x5c, 0x8d, 0x3e, 0x52, 0xda, 0x16, 0x3e,
  0x15, 0x43, 0x80, 0x3e, 0x9f, 0x43, 0x87, 0x3e, 0xbc, 0x0e, 0xee, 0x3d,
  0xa4, 0x1e, 0x46, 0xbe, 0x93, 0x60, 0xb0, 0xbe, 0x12, 0x53, 0x7a, 0x3e,
  0x22, 0x41, 0x3b, 0x3e, 0x0c, 0x17, 0xe4, 0x3d, 0x9d, 0xda, 0xad, 0xbe,
  0xc4, 0xf5, 0xc6, 0xbe, 0x61, 0x91, 0xa5, 0x3e, 0x6e, 0x93, 0x35, 0x3e,
  0xad, 0x83, 0xb3, 0x3e, 0xcd, 0x89, 0xdb, 0xbe, 0x22, 0xc2, 0x33, 0x3e,
  0xc4, 0x25, 0x14, 0xbe, 0x46, 0x0a, 0x79, 0xbe, 0x0e, 0x7c, 0x83, 0xbe,
  0x96, 0xdf, 0x94, 0xbe, 0x80, 0xaf, 0xdd, 0x3c, 0x9e, 0x48, 0x63, 0x3e,
  0xab, 0x73, 0x9e, 0xbe, 0xd8, 0xc7, 0x56, 0x3d, 0xc1, 0x58, 0x8f, 0x3e,
  0x40, 0xb7, 0xcc, 0xbd, 0xdc, 0x91, 0xb5, 0x3d, 0x9a, 0x46, 0x5b, 0xbe,
  0xa4, 0x16, 0xa9, 0x3d, 0xbb, 0x48, 0xbd, 0x3e, 0x92, 0xa4, 0x20, 0xbe,
  0x71, 0x20, 0xb6, 0x3e, 0xe1, 0x78, 0xab, 0xbe, 0xa4, 0x46, 0xea, 0xbd,
  0x24, 0x90, 0x8b, 0xbd, 0x05, 0x7b, 0xc1, 0x3e, 0x02, 0x61, 0xb3, 0xbe,
  0x62, 0xab, 0x31, 0xbe, 0xea, 0xa8, 0xa8, 0xbe, 0x00, 0x00, 0x06, 0x00,
  0x08, 0x00, 0x04, 0x00, 0x06, 0x00, 0x00, 0x00, 0x04, 0x00, 0x00, 0x00,
  0x40, 0x00, 0x00, 0x00, 0x7c, 0x93, 0x04, 0x3f, 0x8c, 0xf1, 0x94, 0x3e,
  0xe9, 0x81, 0x8b, 0xbe, 0x42, 0x2e, 0xcf, 0x3e, 0x90, 0xb8, 0x5d, 0xbd,
  0x90, 0xa1, 0x0d, 0xbe, 0xa2, 0xbe, 0x09, 0x3f, 0x20, 0xe9, 0x43, 0xbd,
  0xb0, 0x95, 0xe8, 0x3e, 0xa4, 0xd8, 0xbd, 0xbe, 0x8f, 0xea, 0xa2, 0xbe,
  0x30, 0x66, 0xbf, 0xbd, 0x28, 0x90, 0xbf, 0xbe, 0xcf, 0x5e, 0x94, 0xbe,
  0x0a, 0x1d, 0x15, 0xbf, 0x66, 0xab, 0x9d, 0x3e, 0x4c, 0xfc, 0xff, 0xff,
  0x50, 0xfc, 0xff, 0xff, 0x0f, 0x00, 0x00, 0x00, 0x4d, 0x4c, 0x49, 0x52,
  0x20, 0x43, 0x6f, 0x6e, 0x76, 0x65, 0x72, 0x74, 0x65, 0x64, 0x2e, 0x00,
  0x01, 0x00, 0x00, 0x00, 0x14, 0x00, 0x00, 0x00, 0x00, 0x00, 0x0e, 0x00,
  0x18, 0x00, 0x14, 0x00, 0x10, 0x00, 0x0c, 0x00, 0x08, 0x00, 0x04, 0x00,
  0x0e, 0x00, 0x00, 0x00, 0x14, 0x00, 0x00, 0x00, 0x1c, 0x00, 0x00, 0x00,
  0xd8, 0x00, 0x00, 0x00, 0xdc, 0x00, 0x00, 0x00, 0xe0, 0x00, 0x00, 0x00,
  0x04, 0x00, 0x00, 0x00, 0x6d, 0x61, 0x69, 0x6e, 0x00, 0x00, 0x00, 0x00,
  0x03, 0x00, 0x00, 0x00, 0x80, 0x00, 0x00, 0x00, 0x38, 0x00, 0x00, 0x00,
  0x04, 0x00, 0x00, 0x00, 0x9a, 0xff, 0xff, 0xff, 0x10, 0x00, 0x00, 0x00,
  0x00, 0x00, 0x00, 0x08, 0x0c, 0x00, 0x00, 0x00, 0x10, 0x00, 0x00, 0x00,
  0xc8, 0xfc, 0xff, 0xff, 0x01, 0x00, 0x00, 0x00, 0x06, 0x00, 0x00, 0x00,
  0x03, 0x00, 0x00, 0x00, 0x05, 0x00, 0x00, 0x00, 0x03, 0x00, 0x00, 0x00,
  0xff, 0xff, 0xff, 0xff, 0xca, 0xff, 0xff, 0xff, 0x10, 0x00, 0x00, 0x00,
  0x00, 0x00, 0x00, 0x08, 0x10, 0x00, 0x00, 0x00, 0x14, 0x00, 0x00, 0x00,
  0xba, 0xff, 0xff, 0xff, 0x00, 0x00, 0x00, 0x01, 0x01, 0x00, 0x00, 0x00,
  0x05, 0x00, 0x00, 0x00, 0x03, 0x00, 0x00, 0x00, 0x04, 0x00, 0x00, 0x00,
  0x02, 0x00, 0x00, 0x00, 0xff, 0xff, 0xff, 0xff, 0x00, 0x00, 0x0e, 0x00,
  0x16, 0x00, 0x00, 0x00, 0x10, 0x00, 0x0c, 0x00, 0x0b, 0x00, 0x04, 0x00,
  0x0e, 0x00, 0x00, 0x00, 0x18, 0x00, 0x00, 0x00, 0x00, 0x00, 0x00, 0x08,
  0x18, 0x00, 0x00, 0x00, 0x1c, 0x00, 0x00, 0x00, 0x00, 0x00, 0x06, 0x00,
  0x08, 0x00, 0x07, 0x00, 0x06, 0x00, 0x00, 0x00, 0x00, 0x00, 0x00, 0x01,
  0x01, 0x00, 0x00, 0x00, 0x04, 0x00, 0x00, 0x00, 0x03, 0x00, 0x00, 0x00,
  0x00, 0x00, 0x00, 0x00, 0x01, 0x00, 0x00, 0x00, 0xff, 0xff, 0xff, 0xff,
  0x01, 0x00, 0x00, 0x00, 0x06, 0x00, 0x00, 0x00, 0x01, 0x00, 0x00, 0x00,
  0x00, 0x00, 0x00, 0x00, 0x07, 0x00, 0x00, 0x00, 0x64, 0x02, 0x00, 0x00,
  0x0c, 0x02, 0x00, 0x00, 0xb4, 0x01, 0x00, 0x00, 0x6c, 0x01, 0x00, 0x00,
  0xe8, 0x00, 0x00, 0x00, 0x5c, 0x00, 0x00, 0x00, 0x04, 0x00, 0x00, 0x00,
  0xcc, 0xfd, 0xff, 0xff, 0x14, 0x00, 0x00, 0x00, 0x1c, 0x00, 0x00, 0x00,
  0x1c, 0x00, 0x00, 0x00, 0x07, 0x00, 0x00, 0x00, 0x34, 0x00, 0x00, 0x00,
  0x02, 0x00, 0x00, 0x00, 0xff, 0xff, 0xff, 0xff, 0x01, 0x00, 0x00, 0x00,
  0xb8, 0xfd, 0xff, 0xff, 0x19, 0x00, 0x00, 0x00, 0x53, 0x74, 0x61, 0x74,
  0x65, 0x66, 0x75, 0x6c, 0x50, 0x61, 0x72, 0x74, 0x69, 0x74, 0x69, 0x6f,
  0x6e, 0x65, 0x64, 0x43, 0x61, 0x6c, 0x6c, 0x3a, 0x30, 0x00, 0x00, 0x00,
  0x02, 0x00, 0x00, 0x00, 0x01, 0x00, 0x00, 0x00, 0x01, 0x00, 0x00, 0x00,
  0x20, 0xfe, 0xff, 0xff, 0x14, 0x00, 0x00, 0x00, 0x1c, 0x00, 0x00, 0x00,
  0x1c, 0x00, 0x00, 0x00, 0x06, 0x00, 0x00, 0x00, 0x68, 0x00, 0x00, 0x00,
  0x02, 0x00, 0x00, 0x00, 0xff, 0xff, 0xff, 0xff, 0x10, 0x00, 0x00, 0x00,
  0x0c, 0xfe, 0xff, 0xff, 0x4c, 0x00, 0x00, 0x00, 0x73, 0x65, 0x71, 0x75,
  0x65, 0x6e, 0x74, 0x69, 0x61, 0x6c, 0x2f, 0x64, 0x65, 0x6e, 0x73, 0x65,
  0x5f, 0x31, 0x2f, 0x4d, 0x61, 0x74, 0x4d, 0x75, 0x6c, 0x3b, 0x73, 0x65,
  0x71, 0x75, 0x65, 0x6e, 0x74, 0x69, 0x61, 0x6c, 0x2f, 0x64, 0x65, 0x6e,
  0x73, 0x65, 0x5f, 0x31, 0x2f, 0x52, 0x65, 0x6c, 0x75, 0x3b, 0x73, 0x65,
  0x71, 0x75, 0x65, 0x6e, 0x74, 0x69, 0x61, 0x6c, 0x2f, 0x64, 0x65, 0x6e,
  0x73, 0x65, 0x5f, 0x31, 0x2f, 0x42, 0x69, 0x61, 0x73, 0x41, 0x64, 0x64,
  0x00, 0x00, 0x00, 0x00, 0x02, 0x00, 0x00, 0x00, 0x01, 0x00, 0x00, 0x00,
  0x10, 0x00, 0x00, 0x00, 0xa8, 0xfe, 0xff, 0xff, 0x14, 0x00, 0x00, 0x00,
  0x1c, 0x00, 0x00, 0x00, 0x1c, 0x00, 0x00, 0x00, 0x05, 0x00, 0x00, 0x00,
  0x60, 0x00, 0x00, 0x00, 0x02, 0x00, 0x00, 0x00, 0xff, 0xff, 0xff, 0xff,
  0x10, 0x00, 0x00, 0x00, 0x94, 0xfe, 0xff, 0xff, 0x46, 0x00, 0x00, 0x00,
  0x73, 0x65, 0x71, 0x75, 0x65, 0x6e, 0x74, 0x69, 0x61, 0x6c, 0x2f, 0x64,
  0x65, 0x6e, 0x73, 0x65, 0x2f, 0x4d, 0x61, 0x74, 0x4d, 0x75, 0x6c, 0x3b,
  0x73, 0x65, 0x71, 0x75, 0x65, 0x6e, 0x74, 0x69, 0x61, 0x6c, 0x2f, 0x64,
  0x65, 0x6e, 0x73, 0x65, 0x2f, 0x52, 0x65, 0x6c, 0x75, 0x3b, 0x73, 0x65,
  0x71, 0x75, 0x65, 0x6e, 0x74, 0x69, 0x61, 0x6c, 0x2f, 0x64, 0x65, 0x6e,
  0x73, 0x65, 0x2f, 0x42, 0x69, 0x61, 0x73, 0x41, 0x64, 0x64, 0x00, 0x00,
  0x02, 0x00, 0x00, 0x00, 0x01, 0x00, 0x00, 0x00, 0x10, 0x00, 0x00, 0x00,
  0x76, 0xff, 0xff, 0xff, 0x10, 0x00, 0x00, 0x00, 0x10, 0x00, 0x00, 0x00,
  0x04, 0x00, 0x00, 0x00, 0x28, 0x00, 0x00, 0x00, 0x04, 0xff, 0xff, 0xff,
  0x19, 0x00, 0x00, 0x00, 0x73, 0x65, 0x71, 0x75, 0x65, 0x6e, 0x74, 0x69,
  0x61, 0x6c, 0x2f, 0x64, 0x65, 0x6e, 0x73, 0x65, 0x5f, 0x32, 0x2f, 0x4d,
  0x61, 0x74, 0x4d, 0x75, 0x6c, 0x00, 0x00, 0x00, 0x02, 0x00, 0x00, 0x00,
  0x01, 0x00, 0x00, 0x00, 0x10, 0x00, 0x00, 0x00, 0xba, 0xff, 0xff, 0xff,
  0x10, 0x00, 0x00, 0x00, 0x10, 0x00, 0x00, 0x00, 0x03, 0x00, 0x00, 0x00,
  0x28, 0x00, 0x00, 0x00, 0x48, 0xff, 0xff, 0xff, 0x19, 0x00, 0x00, 0x00,
  0x73, 0x65, 0x71, 0x75, 0x65, 0x6e, 0x74, 0x69, 0x61, 0x6c, 0x2f, 0x64,
  0x65, 0x6e, 0x73, 0x65, 0x5f, 0x31, 0x2f, 0x4d, 0x61, 0x74, 0x4d, 0x75,
  0x6c, 0x00, 0x00, 0x00, 0x02, 0x00, 0x00, 0x00, 0x10, 0x00, 0x00, 0x00,
  0x10, 0x00, 0x00, 0x00, 0x00, 0x00, 0x0e, 0x00, 0x14, 0x00, 0x10, 0x00,
  0x00, 0x00, 0x0c, 0x00, 0x08, 0x00, 0x04, 0x00, 0x0e, 0x00, 0x00, 0x00,
  0x10, 0x00, 0x00, 0x00, 0x10, 0x00, 0x00, 0x00, 0x02, 0x00, 0x00, 0x00,
  0x24, 0x00, 0x00, 0x00, 0x9c, 0xff, 0xff, 0xff, 0x17, 0x00, 0x00, 0x00,
  0x73, 0x65, 0x71, 0x75, 0x65, 0x6e, 0x74, 0x69, 0x61, 0x6c, 0x2f, 0x64,
  0x65, 0x6e, 0x73, 0x65, 0x2f, 0x4d, 0x61, 0x74, 0x4d, 0x75, 0x6c, 0x00,
  0x02, 0x00, 0x00, 0x00, 0x10, 0x00, 0x00, 0x00, 0x01, 0x00, 0x00, 0x00,
  0x14, 0x00, 0x18, 0x00, 0x14, 0x00, 0x00, 0x00, 0x10, 0x00, 0x0c, 0x00,
  0x08, 0x00, 0x00, 0x00, 0x00, 0x00, 0x04, 0x00, 0x14, 0x00, 0x00, 0x00,
  0x14, 0x00, 0x00, 0x00, 0x20, 0x00, 0x00, 0x00, 0x20, 0x00, 0x00, 0x00,
  0x01, 0x00, 0x00, 0x00, 0x3c, 0x00, 0x00, 0x00, 0x02, 0x00, 0x00, 0x00,
  0xff, 0xff, 0xff, 0xff, 0x01, 0x00, 0x00, 0x00, 0x04, 0x00, 0x04, 0x00,
  0x04, 0x00, 0x00, 0x00, 0x1d, 0x00, 0x00, 0x00, 0x73, 0x65, 0x72, 0x76,
  0x69, 0x6e, 0x67, 0x5f, 0x64, 0x65, 0x66, 0x61, 0x75, 0x6c, 0x74, 0x5f,
  0x64, 0x65, 0x6e, 0x73, 0x65, 0x5f, 0x69, 0x6e, 0x70, 0x75, 0x74, 0x3a,
  0x30, 0x00, 0x00, 0x00, 0x02, 0x00, 0x00, 0x00, 0x01, 0x00, 0x00, 0x00,
  0x01, 0x00, 0x00, 0x00, 0x01, 0x00, 0x00, 0x00, 0x10, 0x00, 0x00, 0x00,
  0x0c, 0x00, 0x0c, 0x00, 0x0b, 0x00, 0x00, 0x00, 0x00, 0x00, 0x04, 0x00,
  0x0c, 0x00, 0x00, 0x00, 0x09, 0x00, 0x00, 0x00, 0x00, 0x00, 0x00, 0x09
 
};

#endif //SINE_MODEL_H