#ifndef SINE_MODEL_H
#define SINE_MODEL_H


unsigned int sine_model_len = 3116;
unsigned char sine_model[] = {
 0x1c, 0x00, 0x00, 0x00, 0x54, 0x46, 0x4c, 0x33, 0x14, 0x00, 0x20, 0x00,
  0x1c, 0x00, 0x18, 0x00, 0x14, 0x00, 0x10, 0x00, 0x0c, 0x00, 0x00, 0x00,
  0x08, 0x00, 0x04, 0x00, 0x14, 0x00, 0x00, 0x00, 0x1c, 0x00, 0x00, 0x00,
  0x90, 0x00, 0x00, 0x00, 0xe8, 0x00, 0x00, 0x00, 0x04, 0x07, 0x00, 0x00,
  0x14, 0x07, 0x00, 0x00, 0xd8, 0x0b, 0x00, 0x00, 0x03, 0x00, 0x00, 0x00,
  0x01, 0x00, 0x00, 0x00, 0x10, 0x00, 0x00, 0x00, 0x00, 0x00, 0x0a, 0x00,
  0x10, 0x00, 0x0c, 0x00, 0x08, 0x00, 0x04, 0x00, 0x0a, 0x00, 0x00, 0x00,
  0x0c, 0x00, 0x00, 0x00, 0x1c, 0x00, 0x00, 0x00, 0x38, 0x00, 0x00, 0x00,
  0x0f, 0x00, 0x00, 0x00, 0x73, 0x65, 0x72, 0x76, 0x69, 0x6e, 0x67, 0x5f,
  0x64, 0x65, 0x66, 0x61, 0x75, 0x6c, 0x74, 0x00, 0x01, 0x00, 0x00, 0x00,
  0x04, 0x00, 0x00, 0x00, 0x98, 0xff, 0xff, 0xff, 0x09, 0x00, 0x00, 0x00,
  0x04, 0x00, 0x00, 0x00, 0x07, 0x00, 0x00, 0x00, 0x64, 0x65, 0x6e, 0x73,
  0x65, 0x5f, 0x32, 0x00, 0x01, 0x00, 0x00, 0x00, 0x04, 0x00, 0x00, 0x00,
  0xc6, 0xf9, 0xff, 0xff, 0x04, 0x00, 0x00, 0x00, 0x0b, 0x00, 0x00, 0x00,
  0x64, 0x65, 0x6e, 0x73, 0x65, 0x5f, 0x69, 0x6e, 0x70, 0x75, 0x74, 0x00,
  0x02, 0x00, 0x00, 0x00, 0x34, 0x00, 0x00, 0x00, 0x04, 0x00, 0x00, 0x00,
  0xdc, 0xff, 0xff, 0xff, 0x0c, 0x00, 0x00, 0x00, 0x04, 0x00, 0x00, 0x00,
  0x13, 0x00, 0x00, 0x00, 0x43, 0x4f, 0x4e, 0x56, 0x45, 0x52, 0x53, 0x49,
  0x4f, 0x4e, 0x5f, 0x4d, 0x45, 0x54, 0x41, 0x44, 0x41, 0x54, 0x41, 0x00,
  0x08, 0x00, 0x0c, 0x00, 0x08, 0x00, 0x04, 0x00, 0x08, 0x00, 0x00, 0x00,
  0x0b, 0x00, 0x00, 0x00, 0x04, 0x00, 0x00, 0x00, 0x13, 0x00, 0x00, 0x00,
  0x6d, 0x69, 0x6e, 0x5f, 0x72, 0x75, 0x6e, 0x74, 0x69, 0x6d, 0x65, 0x5f,
  0x76, 0x65, 0x72, 0x73, 0x69, 0x6f, 0x6e, 0x00, 0x0d, 0x00, 0x00, 0x00,
  0x18, 0x06, 0x00, 0x00, 0x10, 0x06, 0x00, 0x00, 0xc0, 0x05, 0x00, 0x00,
  0xa4, 0x05, 0x00, 0x00, 0x54, 0x05, 0x00, 0x00, 0x04, 0x05, 0x00, 0x00,
  0xf4, 0x00, 0x00, 0x00, 0xa4, 0x00, 0x00, 0x00, 0x9c, 0x00, 0x00, 0x00,
  0x94, 0x00, 0x00, 0x00, 0x8c, 0x00, 0x00, 0x00, 0x6c, 0x00, 0x00, 0x00,
  0x04, 0x00, 0x00, 0x00, 0x72, 0xfa, 0xff, 0xff, 0x04, 0x00, 0x00, 0x00,
  0x58, 0x00, 0x00, 0x00, 0x0c, 0x00, 0x00, 0x00, 0x08, 0x00, 0x0e, 0x00,
  0x08, 0x00, 0x04, 0x00, 0x08, 0x00, 0x00, 0x00, 0x10, 0x00, 0x00, 0x00,
  0x28, 0x00, 0x00, 0x00, 0x00, 0x00, 0x06, 0x00, 0x08, 0x00, 0x04, 0x00,
  0x06, 0x00, 0x00, 0x00, 0x04, 0x00, 0x00, 0x00, 0x01, 0x00, 0x00, 0x00,
  0xea, 0x03, 0x00, 0x00, 0x00, 0x00, 0x0a, 0x00, 0x10, 0x00, 0x0c, 0x00,
  0x08, 0x00, 0x04, 0x00, 0x0a, 0x00, 0x00, 0x00, 0x02, 0x00, 0x00, 0x00,
  0x02, 0x00, 0x00, 0x00, 0x04, 0x00, 0x00, 0x00, 0x05, 0x00, 0x00, 0x00,
  0x32, 0x2e, 0x39, 0x2e, 0x31, 0x00, 0x00, 0x00, 0xd6, 0xfa, 0xff, 0xff,
  0x04, 0x00, 0x00, 0x00, 0x10, 0x00, 0x00, 0x00, 0x31, 0x2e, 0x35, 0x2e,
  0x30, 0x00, 0x00, 0x00, 0x00, 0x00, 0x00, 0x00, 0x00, 0x00, 0x00, 0x00,
  0xf4, 0xf5, 0xff, 0xff, 0xf8, 0xf5, 0xff, 0xff, 0xfc, 0xf5, 0xff, 0xff,
  0xfe, 0xfa, 0xff, 0xff, 0x04, 0x00, 0x00, 0x00, 0x40, 0x00, 0x00, 0x00,
  0x43, 0x32, 0x61, 0x3f, 0xe0, 0x19, 0x54, 0xbe, 0x6a, 0xd0, 0x16, 0xbf,
  0x20, 0x46, 0x2c, 0xbf, 0x36, 0x1c, 0xf5, 0xbe, 0x74, 0x6d, 0xac, 0xbe,
  0x10, 0x34, 0xd7, 0x3e, 0x0c, 0x08, 0x62, 0x3e, 0xb0, 0x23, 0xbb, 0x3d,
  0x57, 0x7a, 0xf4, 0xbe, 0xda, 0x34, 0x9e, 0x3e, 0x31, 0x67, 0xac, 0x3c,
  0x22, 0xfa, 0xd0, 0x3e, 0x99, 0x1d, 0x73, 0xbf, 0x6d, 0x89, 0xbf, 0x3f,
  0x6a, 0x51, 0xee, 0xbe, 0x4a, 0xfb, 0xff, 0xff, 0x04, 0x00, 0x00, 0x00,
  0x00, 0x04, 0x00, 0x00, 0x13, 0xf7, 0x93, 0xbd, 0x50, 0x81, 0xb4, 0xbd,
  0xef, 0x9b, 0x6a, 0xbd, 0x98, 0xf7, 0xbb, 0xbd, 0xe4, 0x4f, 0x82, 0x3d,
  0x12, 0x2c, 0xa6, 0xbe, 0x26, 0x93, 0x6b, 0x3e, 0x25, 0x1e, 0xaa, 0x3e,
  0x55, 0x9d, 0xf1, 0x3e, 0xd3, 0x1b, 0xb7, 0xbe, 0x35, 0x14, 0xec, 0x3e,
  0xeb, 0xdb, 0x89, 0xbe, 0x8a, 0x6d, 0x08, 0x3d, 0x44, 0x1f, 0xcb, 0x3d,
  0xd6, 0x0c, 0x01, 0xbe, 0xab, 0xcf, 0xc0, 0x3e, 0xfa, 0xb0, 0xa5, 0xbe,
  0x84, 0xd3, 0xc0, 0x3d, 0xaa, 0x94, 0x57, 0x3e, 0xfc, 0x76, 0x6c, 0xbe,
  0x30, 0x59, 0x35, 0xbe, 0xaa, 0xa5, 0xc7, 0xbe, 0xb7, 0x0a, 0xdc, 0xbe,
  0x60, 0xce, 0x00, 0xbe, 0x46, 0x0e, 0x55, 0x3e, 0xae, 0xf8, 0xba, 0xbe,
  0xf1, 0xff, 0xa1, 0x3e, 0x7d, 0x02, 0x84, 0xbe, 0xab, 0x8c, 0xcb, 0x3e,
  0x8a, 0x7a, 0x1d, 0xbe, 0x2e, 0x86, 0x16, 0x3e, 0x56, 0x3b, 0x3f, 0x3e,
  0xea, 0x20, 0x57, 0x3e, 0x38, 0xec, 0x83, 0xbe, 0x80, 0xe2, 0x60, 0xbe,
  0x73, 0x96, 0xbe, 0xbe, 0xd7, 0x79, 0xc3, 0x3e, 0xdc, 0x3d, 0xaa, 0x3d,
  0x98, 0x32, 0x91, 0xbe, 0x15, 0x20, 0xc2, 0x3e, 0x30, 0x6a, 0xf2, 0xbd,
  0xa1, 0x27, 0xb5, 0x3e, 0x57, 0xb9, 0xa5, 0xbe, 0xd4, 0xbf, 0xb9, 0xbd,
  0x71, 0x54, 0xb6, 0xbe, 0x80, 0x33, 0x44, 0x3b, 0xff, 0x9a, 0x9f, 0xbe,
  0x9d, 0xbd, 0xa2, 0xbe, 0x31, 0xb6, 0xc9, 0xbe, 0x92, 0x94, 0xba, 0xbe,
  0x86, 0x98, 0x23, 0x3e, 0x65, 0xdc, 0xd4, 0x3d, 0x15, 0x71, 0x99, 0x3e,
  0xd6, 0x9b, 0x99, 0x3e, 0x7b, 0x68, 0x21, 0xbe, 0x68, 0x1e, 0x07, 0xbe,
  0x03, 0xfe, 0x89, 0xbe, 0x92, 0x6e, 0xbc, 0xbe, 0xa7, 0x29, 0x6b, 0xbe,
  0x98, 0x4e, 0xbe, 0x3e, 0x1f, 0xe5, 0x43, 0x3e, 0x3c, 0xdd, 0x2a, 0x3d,
  0xcb, 0xeb, 0x92, 0x3e, 0xe8, 0x78, 0x5b, 0xbd, 0x9a, 0x16, 0xd6, 0x3e,
  0xd1, 0x8e, 0xa5, 0xbe, 0xb2, 0x18, 0x88, 0xbd, 0xca, 0xc0, 0x40, 0xbe,
  0x3b, 0x9c, 0xaa, 0xbe, 0x6a, 0x31, 0x5e, 0x3e, 0x49, 0x7a, 0xe5, 0x3e,
  0xff, 0x8e, 0xad, 0x3e, 0x56, 0x72, 0x08, 0xbd, 0x71, 0x12, 0xd0, 0x3d,
  0xe9, 0xe8, 0xe7, 0x3c, 0xfa, 0x21, 0x11, 0x3e, 0x25, 0x05, 0xa0, 0xba,
  0x1f, 0xd3, 0x6f, 0xbe, 0xdc, 0x4a, 0xc0, 0xbe, 0xf4, 0x91, 0x89, 0x3d,
  0x80, 0x8f, 0x97, 0xbe, 0x59, 0x3e, 0xeb, 0x3e, 0x53, 0x19, 0xe1, 0x3d,
  0xd3, 0x28, 0xae, 0x3e, 0x20, 0xff, 0xdb, 0xbc, 0x2a, 0x63, 0x06, 0xbe,
  0xde, 0x4e, 0x25, 0xbe, 0xd0, 0xb0, 0x51, 0x3d, 0xa3, 0x27, 0x6a, 0x3e,
  0xe5, 0x17, 0xab, 0x3d, 0xa5, 0xc1, 0xef, 0xbe, 0x68, 0xb8, 0x8f, 0x3e,
  0xd1, 0xef, 0xa7, 0xbe, 0x6a, 0xf9, 0xb9, 0x3e, 0x51, 0x21, 0x84, 0x3e,
  0x8b, 0x96, 0x58, 0xbe, 0x32, 0xdd, 0x05, 0xbe, 0xb8, 0x53, 0x3b, 0x3e,
  0x88, 0x30, 0x2a, 0x3d, 0x19, 0xe4, 0xc7, 0xbd, 0xb3, 0x6c, 0xcf, 0x3e,
  0x34, 0x37, 0xa2, 0x3e, 0x4d, 0xc5, 0x7d, 0xbe, 0xc9, 0x53, 0xa8, 0x3e,
  0x13, 0x8a, 0x98, 0x3e, 0x0d, 0x2d, 0x01, 0xbe, 0x24, 0x14, 0xf6, 0xbd,
  0x1a, 0xb9, 0xc9, 0xbd, 0xfb, 0x68, 0xf3, 0xbe, 0xec, 0x7e, 0x8d, 0x3c,
  0x2a, 0x15, 0xae, 0xbe, 0x80, 0xad, 0x26, 0xbc, 0x8e, 0xbc, 0x88, 0x3e,
  0x37, 0xcf, 0x9f, 0xbe, 0xbc, 0xa4, 0xae, 0x3e, 0xc9, 0xdd, 0x8b, 0x3e,
  0x09, 0x59, 0x9d, 0x3e, 0x99, 0x6d, 0xf2, 0xbe, 0x31, 0x77, 0x8b, 0x3e,
  0x6d, 0x4c, 0xad, 0x3e, 0x0e, 0xf1, 0xac, 0xbd, 0x3b, 0x86, 0xa7, 0x3e,
  0x0a, 0x98, 0x07, 0xbe, 0x09, 0x73, 0x00, 0xbf, 0x3b, 0xc9, 0xd8, 0xbe,
  0xad, 0x7e, 0x88, 0x3e, 0xf7, 0x33, 0xda, 0x3e, 0xf1, 0xf4, 0xda, 0x3e,
  0x44, 0x2a, 0xbe, 0x3d, 0x7b, 0xe6, 0xce, 0x3e, 0x57, 0xf7, 0xad, 0x3e,
  0x60, 0x2a, 0x73, 0x3c, 0x10, 0xc2, 0xef, 0xbc, 0x80, 0x13, 0x3c, 0xbc,
  0x9e, 0x67, 0x3e, 0x3e, 0x74, 0xd3, 0x8f, 0x3d, 0xfc, 0xf6, 0x95, 0xbe,
  0x82, 0x98, 0x23, 0x3e, 0xa6, 0x59, 0xd5, 0xbe, 0xa8, 0x94, 0xcf, 0xbe,
  0x14, 0x3e, 0x51, 0xbe, 0x15, 0x5a, 0xd5, 0xbe, 0xc4, 0xc2, 0xb1, 0x3d,
  0x61, 0x90, 0x8e, 0x3e, 0xa4, 0xab, 0x10, 0x3e, 0x87, 0xca, 0xdf, 0x3e,
  0x2e, 0xa7, 0x9f, 0x3e, 0xfc, 0xf4, 0x98, 0xbe, 0x9d, 0xef, 0xb4, 0x3e,
  0xc5, 0x34, 0x9e, 0x3e, 0xc2, 0xb6, 0xab, 0x3e, 0x48, 0x1d, 0x0c, 0xbe,
  0x7e, 0x56, 0x51, 0x3e, 0x4e, 0xc4, 0x9a, 0xbe, 0x96, 0xa3, 0xac, 0x3e,
  0x0a, 0xf4, 0xc9, 0xbb, 0x58, 0x08, 0x6b, 0xbe, 0x9c, 0xad, 0xfc, 0x3e,
  0x51, 0xa3, 0x8d, 0x3e, 0x77, 0x0c, 0xa1, 0x3e, 0x5c, 0xf3, 0x9d, 0xbe,
  0x3a, 0x0b, 0x1a, 0xbe, 0x43, 0x09, 0xc8, 0x3e, 0x55, 0x27, 0x48, 0x3c,
  0x14, 0x5a, 0xf8, 0x3d, 0x8f, 0x89, 0x92, 0xbe, 0xc9, 0x96, 0x7c, 0x3e,
  0x61, 0x36, 0xbf, 0xbe, 0x68, 0xd8, 0xdd, 0x3e, 0x7e, 0xf7, 0xf2, 0x3d,
  0x72, 0x96, 0xcf, 0x3e, 0xe4, 0x20, 0xc3, 0xbe, 0xc5, 0x2b, 0x49, 0x3d,
  0xb7, 0x53, 0x4e, 0x3e, 0xd6, 0x3c, 0xad, 0xbe, 0x00, 0x0b, 0x8e, 0x3a,
  0x8c, 0xc8, 0xae, 0xbc, 0x51, 0x7f, 0xc2, 0xbe, 0x83, 0xd2, 0xbf, 0x3e,
  0x87, 0x2c, 0xfb, 0x3d, 0x16, 0xf4, 0x8c, 0xbe, 0xad, 0x70, 0x8e, 0xbe,
  0x98, 0xf4, 0xac, 0x3d, 0x69, 0x3f, 0xab, 0xbe, 0x5d, 0x60, 0x58, 0xbd,
  0x0c, 0x76, 0xb3, 0xbe, 0x5c, 0xc3, 0x86, 0xbe, 0xfb, 0x8f, 0x47, 0x3e,
  0x60, 0x4d, 0x9a, 0xbe, 0xb1, 0x2b, 0xcc, 0xbe, 0x60, 0xca, 0x5e, 0x3d,
  0x50, 0x91, 0xd2, 0x3c, 0x9f, 0xd1, 0x22, 0xbe, 0x81, 0x13, 0xc0, 0x3e,
  0x3b, 0x3b, 0x98, 0x3d, 0xaf, 0x03, 0x5f, 0x3e, 0x7a, 0x2c, 0x6a, 0x3e,
  0xed, 0x86, 0x2a, 0xbe, 0xcf, 0xb8, 0xc1, 0x3e, 0xa6, 0x07, 0x00, 0xbe,
  0xf3, 0x45, 0x97, 0x3e, 0x3b, 0x84, 0xb6, 0x3e, 0xfe, 0x4c, 0x46, 0x3e,
  0xa0, 0x89, 0x97, 0xbe, 0x54, 0x03, 0x8c, 0xbe, 0xad, 0xb6, 0x4c, 0x3e,
  0x52, 0xf2, 0x89, 0xbe, 0x3d, 0x9b, 0x43, 0xbe, 0xa5, 0xf4, 0xc7, 0x3d,
  0xb0, 0x94, 0x15, 0xbf, 0xaf, 0x22, 0x8c, 0x3e, 0x1d, 0x92, 0xf6, 0xbd,
  0xef, 0xea, 0xc5, 0x3e, 0xff, 0xa1, 0x17, 0x3f, 0x46, 0x99, 0x93, 0xbe,
  0x73, 0x72, 0x9b, 0xbe, 0x2a, 0x4f, 0x80, 0xbe, 0x59, 0xa9, 0x2c, 0xbe,
  0x1b, 0x38, 0xa3, 0xbe, 0x3e, 0xc0, 0xd3, 0x3e, 0xb8, 0x42, 0x28, 0x3e,
  0xd0, 0xa4, 0x34, 0x3e, 0x30, 0x51, 0x4a, 0x3d, 0x47, 0x1f, 0xbe, 0xbe,
  0x51, 0x12, 0x28, 0xbf, 0xfc, 0xc1, 0x8a, 0xbd, 0xb2, 0xdf, 0x24, 0xbe,
  0x51, 0x49, 0x6f, 0x3e, 0xe0, 0x86, 0xfb, 0xbd, 0x77, 0x4a, 0x14, 0x3f,
  0xd8, 0xe7, 0xdc, 0xbd, 0x11, 0x07, 0xd5, 0x3e, 0x0a, 0x7d, 0x2a, 0xbf,
  0x89, 0x2d, 0xa4, 0x3e, 0x84, 0xbe, 0x45, 0xbf, 0xc0, 0x1e, 0x78, 0x3e,
  0x51, 0x5b, 0x25, 0x3e, 0xbc, 0x8e, 0xe2, 0x3e, 0x1a, 0xd8, 0x7e, 0x3e,
  0xf1, 0x20, 0xa4, 0x3e, 0x68, 0xfc, 0x46, 0xbd, 0xd6, 0xa4, 0x70, 0xbe,
  0x59, 0x95, 0x8b, 0xbb, 0x5b, 0x9c, 0xef, 0xbc, 0xd2, 0xa4, 0x32, 0x3e,
  0x4f, 0xed, 0x11, 0xbd, 0x3f, 0xd3, 0xa5, 0x3e, 0xdd, 0xe0, 0x9f, 0x3e,
  0x83, 0xef, 0x75, 0x3e, 0x4f, 0x1a, 0xdc, 0x3d, 0x6c, 0xb6, 0x87, 0xbd,
  0xc1, 0x62, 0xd0, 0xbc, 0xfc, 0x33, 0xf9, 0x3c, 0xc2, 0x15, 0x93, 0x3d,
  0xc2, 0x97, 0x87, 0xbe, 0x04, 0x78, 0xd4, 0x3d, 0x56, 0xff, 0xff, 0xff,
  0x04, 0x00, 0x00, 0x00, 0x40, 0x00, 0x00, 0x00, 0x46, 0x58, 0x11, 0x3f,
  0x5e, 0xa6, 0xd8, 0x3e, 0xfd, 0x4c, 0x41, 0x3b, 0x40, 0x3f, 0xef, 0x3e,
  0xc8, 0xa8, 0x8d, 0xbe, 0xdc, 0x51, 0x22, 0xbd, 0xbe, 0xca, 0x1d, 0x3f,
  0x78, 0xaa, 0xc8, 0xbd, 0xf9, 0xcd, 0xf0, 0x3e, 0x11, 0x03, 0xcd, 0x3e,
  0xf8, 0xef, 0xa1, 0x3e, 0xfe, 0x7c, 0x32, 0xbd, 0x5e, 0x84, 0x25, 0x3e,
  0x8e, 0xcb, 0xcc, 0x3e, 0xea, 0x51, 0xd1, 0xbe, 0x62, 0xac, 0xb7, 0xbe,
  0xa2, 0xff, 0xff, 0xff, 0x04, 0x00, 0x00, 0x00, 0x40, 0x00, 0x00, 0x00,
  0xca, 0x00, 0x03, 0xbf, 0x00, 0x00, 0x00, 0x00, 0x00, 0x00, 0x00, 0x00,
  0x12, 0xee, 0x93, 0x3e, 0x12, 0x18, 0xa0, 0x3d, 0x84, 0xb9, 0x81, 0x3d,
  0x53, 0xe4, 0xa1, 0xbd, 0x81, 0x49, 0x61, 0xbe, 0x00, 0x00, 0x00, 0x00,
  0xc9, 0x49, 0x2d, 0x3d, 0x83, 0x8f, 0x65, 0xbe, 0xae, 0xf8, 0x4e, 0xbb,
  0xd3, 0xcc, 0x3c, 0xbe, 0x96, 0x79, 0xb0, 0x3e, 0xa3, 0x90, 0x08, 0x3f,
  0xea, 0x67, 0x3e, 0x3d, 0xee, 0xff, 0xff, 0xff, 0x04, 0x00, 0x00, 0x00,
  0x04, 0x00, 0x00, 0x00, 0xaf, 0x03, 0x60, 0xbe, 0x00, 0x00, 0x06, 0x00,
  0x08, 0x00, 0x04, 0x00, 0x06, 0x00, 0x00, 0x00, 0x04, 0x00, 0x00, 0x00,
  0x40, 0x00, 0x00, 0x00, 0x82, 0xd5, 0xd5, 0xbe, 0xf8, 0x27, 0xda, 0xbb,
  0x2e, 0x53, 0x9c, 0xbc, 0xd5, 0x06, 0x0c, 0x3e, 0x00, 0x00, 0x00, 0x00,
  0xfc, 0x84, 0x56, 0x3f, 0x41, 0xce, 0x31, 0xbe, 0x00, 0x00, 0x00, 0x00,
  0xd5, 0xda, 0x0f, 0xbf, 0xaa, 0xab, 0x19, 0x3e, 0x55, 0x46, 0x19, 0xbf,
  0x1e, 0xcd, 0x00, 0x3f, 0x47, 0x73, 0x80, 0x3e, 0x34, 0x9f, 0xeb, 0x3e,
  0x00, 0x00, 0x00, 0x00, 0x00, 0x00, 0x00, 0x00, 0x54, 0xfb, 0xff, 0xff,
  0x58, 0xfb, 0xff, 0xff, 0x0f, 0x00, 0x00, 0x00, 0x4d, 0x4c, 0x49, 0x52,
  0x20, 0x43, 0x6f, 0x6e, 0x76, 0x65, 0x72, 0x74, 0x65, 0x64, 0x2e, 0x00,
  0x01, 0x00, 0x00, 0x00, 0x14, 0x00, 0x00, 0x00, 0x00, 0x00, 0x0e, 0x00,
  0x18, 0x00, 0x14, 0x00, 0x10, 0x00, 0x0c, 0x00, 0x08, 0x00, 0x04, 0x00,
  0x0e, 0x00, 0x00, 0x00, 0x14, 0x00, 0x00, 0x00, 0x1c, 0x00, 0x00, 0x00,
  0xd8, 0x00, 0x00, 0x00, 0xdc, 0x00, 0x00, 0x00, 0xe0, 0x00, 0x00, 0x00,
  0x04, 0x00, 0x00, 0x00, 0x6d, 0x61, 0x69, 0x6e, 0x00, 0x00, 0x00, 0x00,
  0x03, 0x00, 0x00, 0x00, 0x80, 0x00, 0x00, 0x00, 0x38, 0x00, 0x00, 0x00,
  0x04, 0x00, 0x00, 0x00, 0x9a, 0xff, 0xff, 0xff, 0x10, 0x00, 0x00, 0x00,
  0x00, 0x00, 0x00, 0x08, 0x0c, 0x00, 0x00, 0x00, 0x10, 0x00, 0x00, 0x00,
  0xd0, 0xfb, 0xff, 0xff, 0x01, 0x00, 0x00, 0x00, 0x09, 0x00, 0x00, 0x00,
  0x03, 0x00, 0x00, 0x00, 0x08, 0x00, 0x00, 0x00, 0x06, 0x00, 0x00, 0x00,
  0x02, 0x00, 0x00, 0x00, 0xca, 0xff, 0xff, 0xff, 0x10, 0x00, 0x00, 0x00,
  0x00, 0x00, 0x00, 0x08, 0x10, 0x00, 0x00, 0x00, 0x14, 0x00, 0x00, 0x00,
  0xba, 0xff, 0xff, 0xff, 0x00, 0x00, 0x00, 0x01, 0x01, 0x00, 0x00, 0x00,
  0x08, 0x00, 0x00, 0x00, 0x03, 0x00, 0x00, 0x00, 0x07, 0x00, 0x00, 0x00,
  0x05, 0x00, 0x00, 0x00, 0x03, 0x00, 0x00, 0x00, 0x00, 0x00, 0x0e, 0x00,
  0x16, 0x00, 0x00, 0x00, 0x10, 0x00, 0x0c, 0x00, 0x0b, 0x00, 0x04, 0x00,
  0x0e, 0x00, 0x00, 0x00, 0x18, 0x00, 0x00, 0x00, 0x00, 0x00, 0x00, 0x08,
  0x18, 0x00, 0x00, 0x00, 0x1c, 0x00, 0x00, 0x00, 0x00, 0x00, 0x06, 0x00,
  0x08, 0x00, 0x07, 0x00, 0x06, 0x00, 0x00, 0x00, 0x00, 0x00, 0x00, 0x01,
  0x01, 0x00, 0x00, 0x00, 0x07, 0x00, 0x00, 0x00, 0x03, 0x00, 0x00, 0x00,
  0x00, 0x00, 0x00, 0x00, 0x04, 0x00, 0x00, 0x00, 0x01, 0x00, 0x00, 0x00,
  0x01, 0x00, 0x00, 0x00, 0x09, 0x00, 0x00, 0x00, 0x01, 0x00, 0x00, 0x00,
  0x00, 0x00, 0x00, 0x00, 0x0a, 0x00, 0x00, 0x00, 0x5c, 0x03, 0x00, 0x00,
  0xf8, 0x02, 0x00, 0x00, 0x94, 0x02, 0x00, 0x00, 0x40, 0x02, 0x00, 0x00,
  0xfc, 0x01, 0x00, 0x00, 0xb4, 0x01, 0x00, 0x00, 0x6c, 0x01, 0x00, 0x00,
  0xe8, 0x00, 0x00, 0x00, 0x5c, 0x00, 0x00, 0x00, 0x04, 0x00, 0x00, 0x00,
  0xe0, 0xfc, 0xff, 0xff, 0x14, 0x00, 0x00, 0x00, 0x1c, 0x00, 0x00, 0x00,
  0x1c, 0x00, 0x00, 0x00, 0x0a, 0x00, 0x00, 0x00, 0x34, 0x00, 0x00, 0x00,
  0x02, 0x00, 0x00, 0x00, 0xff, 0xff, 0xff, 0xff, 0x01, 0x00, 0x00, 0x00,
  0xcc, 0xfc, 0xff, 0xff, 0x19, 0x00, 0x00, 0x00, 0x53, 0x74, 0x61, 0x74,
  0x65, 0x66, 0x75, 0x6c, 0x50, 0x61, 0x72, 0x74, 0x69, 0x74, 0x69, 0x6f,
  0x6e, 0x65, 0x64, 0x43, 0x61, 0x6c, 0x6c, 0x3a, 0x30, 0x00, 0x00, 0x00,
  0x02, 0x00, 0x00, 0x00, 0x01, 0x00, 0x00, 0x00, 0x01, 0x00, 0x00, 0x00,
  0x34, 0xfd, 0xff, 0xff, 0x14, 0x00, 0x00, 0x00, 0x1c, 0x00, 0x00, 0x00,
  0x1c, 0x00, 0x00, 0x00, 0x09, 0x00, 0x00, 0x00, 0x68, 0x00, 0x00, 0x00,
  0x02, 0x00, 0x00, 0x00, 0xff, 0xff, 0xff, 0xff, 0x10, 0x00, 0x00, 0x00,
  0x20, 0xfd, 0xff, 0xff, 0x4c, 0x00, 0x00, 0x00, 0x73, 0x65, 0x71, 0x75,
  0x65, 0x6e, 0x74, 0x69, 0x61, 0x6c, 0x2f, 0x64, 0x65, 0x6e, 0x73, 0x65,
  0x5f, 0x31, 0x2f, 0x4d, 0x61, 0x74, 0x4d, 0x75, 0x6c, 0x3b, 0x73, 0x65,
  0x71, 0x75, 0x65, 0x6e, 0x74, 0x69, 0x61, 0x6c, 0x2f, 0x64, 0x65, 0x6e,
  0x73, 0x65, 0x5f, 0x31, 0x2f, 0x52, 0x65, 0x6c, 0x75, 0x3b, 0x73, 0x65,
  0x71, 0x75, 0x65, 0x6e, 0x74, 0x69, 0x61, 0x6c, 0x2f, 0x64, 0x65, 0x6e,
  0x73, 0x65, 0x5f, 0x31, 0x2f, 0x42, 0x69, 0x61, 0x73, 0x41, 0x64, 0x64,
  0x00, 0x00, 0x00, 0x00, 0x02, 0x00, 0x00, 0x00, 0x01, 0x00, 0x00, 0x00,
  0x10, 0x00, 0x00, 0x00, 0xbc, 0xfd, 0xff, 0xff, 0x14, 0x00, 0x00, 0x00,
  0x1c, 0x00, 0x00, 0x00, 0x1c, 0x00, 0x00, 0x00, 0x08, 0x00, 0x00, 0x00,
  0x60, 0x00, 0x00, 0x00, 0x02, 0x00, 0x00, 0x00, 0xff, 0xff, 0xff, 0xff,
  0x10, 0x00, 0x00, 0x00, 0xa8, 0xfd, 0xff, 0xff, 0x46, 0x00, 0x00, 0x00,
  0x73, 0x65, 0x71, 0x75, 0x65, 0x6e, 0x74, 0x69, 0x61, 0x6c, 0x2f, 0x64,
  0x65, 0x6e, 0x73, 0x65, 0x2f, 0x4d, 0x61, 0x74, 0x4d, 0x75, 0x6c, 0x3b,
  0x73, 0x65, 0x71, 0x75, 0x65, 0x6e, 0x74, 0x69, 0x61, 0x6c, 0x2f, 0x64,
  0x65, 0x6e, 0x73, 0x65, 0x2f, 0x52, 0x65, 0x6c, 0x75, 0x3b, 0x73, 0x65,
  0x71, 0x75, 0x65, 0x6e, 0x74, 0x69, 0x61, 0x6c, 0x2f, 0x64, 0x65, 0x6e,
  0x73, 0x65, 0x2f, 0x42, 0x69, 0x61, 0x73, 0x41, 0x64, 0x64, 0x00, 0x00,
  0x02, 0x00, 0x00, 0x00, 0x01, 0x00, 0x00, 0x00, 0x10, 0x00, 0x00, 0x00,
  0x96, 0xfe, 0xff, 0xff, 0x10, 0x00, 0x00, 0x00, 0x10, 0x00, 0x00, 0x00,
  0x07, 0x00, 0x00, 0x00, 0x28, 0x00, 0x00, 0x00, 0x18, 0xfe, 0xff, 0xff,
  0x19, 0x00, 0x00, 0x00, 0x73, 0x65, 0x71, 0x75, 0x65, 0x6e, 0x74, 0x69,
  0x61, 0x6c, 0x2f, 0x64, 0x65, 0x6e, 0x73, 0x65, 0x5f, 0x32, 0x2f, 0x4d,
  0x61, 0x74, 0x4d, 0x75, 0x6c, 0x00, 0x00, 0x00, 0x02, 0x00, 0x00, 0x00,
  0x01, 0x00, 0x00, 0x00, 0x10, 0x00, 0x00, 0x00, 0xda, 0xfe, 0xff, 0xff,
  0x10, 0x00, 0x00, 0x00, 0x10, 0x00, 0x00, 0x00, 0x06, 0x00, 0x00, 0x00,
  0x28, 0x00, 0x00, 0x00, 0x5c, 0xfe, 0xff, 0xff, 0x19, 0x00, 0x00, 0x00,
  0x73, 0x65, 0x71, 0x75, 0x65, 0x6e, 0x74, 0x69, 0x61, 0x6c, 0x2f, 0x64,
  0x65, 0x6e, 0x73, 0x65, 0x5f, 0x31, 0x2f, 0x4d, 0x61, 0x74, 0x4d, 0x75,
  0x6c, 0x00, 0x00, 0x00, 0x02, 0x00, 0x00, 0x00, 0x10, 0x00, 0x00, 0x00,
  0x10, 0x00, 0x00, 0x00, 0x1e, 0xff, 0xff, 0xff, 0x10, 0x00, 0x00, 0x00,
  0x10, 0x00, 0x00, 0x00, 0x05, 0x00, 0x00, 0x00, 0x24, 0x00, 0x00, 0x00,
  0xa0, 0xfe, 0xff, 0xff, 0x17, 0x00, 0x00, 0x00, 0x73, 0x65, 0x71, 0x75,
  0x65, 0x6e, 0x74, 0x69, 0x61, 0x6c, 0x2f, 0x64, 0x65, 0x6e, 0x73, 0x65,
  0x2f, 0x4d, 0x61, 0x74, 0x4d, 0x75, 0x6c, 0x00, 0x02, 0x00, 0x00, 0x00,
  0x10, 0x00, 0x00, 0x00, 0x01, 0x00, 0x00, 0x00, 0x5e, 0xff, 0xff, 0xff,
  0x10, 0x00, 0x00, 0x00, 0x10, 0x00, 0x00, 0x00, 0x04, 0x00, 0x00, 0x00,
  0x38, 0x00, 0x00, 0x00, 0xe0, 0xfe, 0xff, 0xff, 0x29, 0x00, 0x00, 0x00,
  0x73, 0x65, 0x71, 0x75, 0x65, 0x6e, 0x74, 0x69, 0x61, 0x6c, 0x2f, 0x64,
  0x65, 0x6e, 0x73, 0x65, 0x5f, 0x31, 0x2f, 0x42, 0x69, 0x61, 0x73, 0x41,
  0x64, 0x64, 0x2f, 0x52, 0x65, 0x61, 0x64, 0x56, 0x61, 0x72, 0x69, 0x61,
  0x62, 0x6c, 0x65, 0x4f, 0x70, 0x00, 0x00, 0x00, 0x01, 0x00, 0x00, 0x00,
  0x10, 0x00, 0x00, 0x00, 0xae, 0xff, 0xff, 0xff, 0x10, 0x00, 0x00, 0x00,
  0x10, 0x00, 0x00, 0x00, 0x03, 0x00, 0x00, 0x00, 0x38, 0x00, 0x00, 0x00,
  0x30, 0xff, 0xff, 0xff, 0x29, 0x00, 0x00, 0x00, 0x73, 0x65, 0x71, 0x75,
  0x65, 0x6e, 0x74, 0x69, 0x61, 0x6c, 0x2f, 0x64, 0x65, 0x6e, 0x73, 0x65,
  0x5f, 0x32, 0x2f, 0x42, 0x69, 0x61, 0x73, 0x41, 0x64, 0x64, 0x2f, 0x52,
  0x65, 0x61, 0x64, 0x56, 0x61, 0x72, 0x69, 0x61, 0x62, 0x6c, 0x65, 0x4f,
  0x70, 0x00, 0x00, 0x00, 0x01, 0x00, 0x00, 0x00, 0x01, 0x00, 0x00, 0x00,
  0x00, 0x00, 0x0e, 0x00, 0x14, 0x00, 0x10, 0x00, 0x00, 0x00, 0x0c, 0x00,
  0x08, 0x00, 0x04, 0x00, 0x0e, 0x00, 0x00, 0x00, 0x10, 0x00, 0x00, 0x00,
  0x10, 0x00, 0x00, 0x00, 0x02, 0x00, 0x00, 0x00, 0x34, 0x00, 0x00, 0x00,
  0x90, 0xff, 0xff, 0xff, 0x27, 0x00, 0x00, 0x00, 0x73, 0x65, 0x71, 0x75,
  0x65, 0x6e, 0x74, 0x69, 0x61, 0x6c, 0x2f, 0x64, 0x65, 0x6e, 0x73, 0x65,
  0x2f, 0x42, 0x69, 0x61, 0x73, 0x41, 0x64, 0x64, 0x2f, 0x52, 0x65, 0x61,
  0x64, 0x56, 0x61, 0x72, 0x69, 0x61, 0x62, 0x6c, 0x65, 0x4f, 0x70, 0x00,
  0x01, 0x00, 0x00, 0x00, 0x10, 0x00, 0x00, 0x00, 0x14, 0x00, 0x18, 0x00,
  0x14, 0x00, 0x00, 0x00, 0x10, 0x00, 0x0c, 0x00, 0x08, 0x00, 0x00, 0x00,
  0x00, 0x00, 0x04, 0x00, 0x14, 0x00, 0x00, 0x00, 0x14, 0x00, 0x00, 0x00,
  0x20, 0x00, 0x00, 0x00, 0x20, 0x00, 0x00, 0x00, 0x01, 0x00, 0x00, 0x00,
  0x3c, 0x00, 0x00, 0x00, 0x02, 0x00, 0x00, 0x00, 0xff, 0xff, 0xff, 0xff,
  0x01, 0x00, 0x00, 0x00, 0x04, 0x00, 0x04, 0x00, 0x04, 0x00, 0x00, 0x00,
  0x1d, 0x00, 0x00, 0x00, 0x73, 0x65, 0x72, 0x76, 0x69, 0x6e, 0x67, 0x5f,
  0x64, 0x65, 0x66, 0x61, 0x75, 0x6c, 0x74, 0x5f, 0x64, 0x65, 0x6e, 0x73,
  0x65, 0x5f, 0x69, 0x6e, 0x70, 0x75, 0x74, 0x3a, 0x30, 0x00, 0x00, 0x00,
  0x02, 0x00, 0x00, 0x00, 0x01, 0x00, 0x00, 0x00, 0x01, 0x00, 0x00, 0x00,
  0x01, 0x00, 0x00, 0x00, 0x10, 0x00, 0x00, 0x00, 0x0c, 0x00, 0x0c, 0x00,
  0x0b, 0x00, 0x00, 0x00, 0x00, 0x00, 0x04, 0x00, 0x0c, 0x00, 0x00, 0x00,
  0x09, 0x00, 0x00, 0x00, 0x00, 0x00, 0x00, 0x09
};

#endif //SINE_MODEL_H