#ifndef Z1_SINE_MODEL_H
#define Z1_SINE_MODEL_H


unsigned int z1_sine_model_len = 3116;
unsigned char z1_sine_model[] = {
 0x1c, 0x00, 0x00, 0x00, 0x54, 0x46, 0x4c, 0x33, 0x14, 0x00, 0x20, 0x00,
  0x1c, 0x00, 0x18, 0x00, 0x14, 0x00, 0x10, 0x00, 0x0c, 0x00, 0x00, 0x00,
  0x08, 0x00, 0x04, 0x00, 0x14, 0x00, 0x00, 0x00, 0x1c, 0x00, 0x00, 0x00,
  0x90, 0x00, 0x00, 0x00, 0xe8, 0x00, 0x00, 0x00, 0x04, 0x07, 0x00, 0x00,
  0x14, 0x07, 0x00, 0x00, 0xd8, 0x0b, 0x00, 0x00, 0x03, 0x00, 0x00, 0x00,
  0x01, 0x00, 0x00, 0x00, 0x10, 0x00, 0x00, 0x00, 0x00, 0x00, 0x0a, 0x00,
  0x10, 0x00, 0x0c, 0x00, 0x08, 0x00, 0x04, 0x00, 0x0a, 0x00, 0x00, 0x00,
  0x0c, 0x00, 0x00, 0x00, 0x1c, 0x00, 0x00, 0x00, 0x38, 0x00, 0x00, 0x00,
  0x0f, 0x00, 0x00, 0x00, 0x73, 0x65, 0x72, 0x76, 0x69, 0x6e, 0x67, 0x5f,
  0x64, 0x65, 0x66, 0x61, 0x75, 0x6c, 0x74, 0x00, 0x01, 0x00, 0x00, 0x00,
  0x04, 0x00, 0x00, 0x00, 0x98, 0xff, 0xff, 0xff, 0x09, 0x00, 0x00, 0x00,
  0x04, 0x00, 0x00, 0x00, 0x07, 0x00, 0x00, 0x00, 0x64, 0x65, 0x6e, 0x73,
  0x65, 0x5f, 0x32, 0x00, 0x01, 0x00, 0x00, 0x00, 0x04, 0x00, 0x00, 0x00,
  0xc6, 0xf9, 0xff, 0xff, 0x04, 0x00, 0x00, 0x00, 0x0b, 0x00, 0x00, 0x00,
  0x64, 0x65, 0x6e, 0x73, 0x65, 0x5f, 0x69, 0x6e, 0x70, 0x75, 0x74, 0x00,
  0x02, 0x00, 0x00, 0x00, 0x34, 0x00, 0x00, 0x00, 0x04, 0x00, 0x00, 0x00,
  0xdc, 0xff, 0xff, 0xff, 0x0c, 0x00, 0x00, 0x00, 0x04, 0x00, 0x00, 0x00,
  0x13, 0x00, 0x00, 0x00, 0x43, 0x4f, 0x4e, 0x56, 0x45, 0x52, 0x53, 0x49,
  0x4f, 0x4e, 0x5f, 0x4d, 0x45, 0x54, 0x41, 0x44, 0x41, 0x54, 0x41, 0x00,
  0x08, 0x00, 0x0c, 0x00, 0x08, 0x00, 0x04, 0x00, 0x08, 0x00, 0x00, 0x00,
  0x0b, 0x00, 0x00, 0x00, 0x04, 0x00, 0x00, 0x00, 0x13, 0x00, 0x00, 0x00,
  0x6d, 0x69, 0x6e, 0x5f, 0x72, 0x75, 0x6e, 0x74, 0x69, 0x6d, 0x65, 0x5f,
  0x76, 0x65, 0x72, 0x73, 0x69, 0x6f, 0x6e, 0x00, 0x0d, 0x00, 0x00, 0x00,
  0x18, 0x06, 0x00, 0x00, 0x10, 0x06, 0x00, 0x00, 0xc0, 0x05, 0x00, 0x00,
  0xa4, 0x05, 0x00, 0x00, 0x54, 0x05, 0x00, 0x00, 0x04, 0x05, 0x00, 0x00,
  0xf4, 0x00, 0x00, 0x00, 0xa4, 0x00, 0x00, 0x00, 0x9c, 0x00, 0x00, 0x00,
  0x94, 0x00, 0x00, 0x00, 0x8c, 0x00, 0x00, 0x00, 0x6c, 0x00, 0x00, 0x00,
  0x04, 0x00, 0x00, 0x00, 0x72, 0xfa, 0xff, 0xff, 0x04, 0x00, 0x00, 0x00,
  0x58, 0x00, 0x00, 0x00, 0x0c, 0x00, 0x00, 0x00, 0x08, 0x00, 0x0e, 0x00,
  0x08, 0x00, 0x04, 0x00, 0x08, 0x00, 0x00, 0x00, 0x10, 0x00, 0x00, 0x00,
  0x28, 0x00, 0x00, 0x00, 0x00, 0x00, 0x06, 0x00, 0x08, 0x00, 0x04, 0x00,
  0x06, 0x00, 0x00, 0x00, 0x04, 0x00, 0x00, 0x00, 0x01, 0x00, 0x00, 0x00,
  0xea, 0x03, 0x00, 0x00, 0x00, 0x00, 0x0a, 0x00, 0x10, 0x00, 0x0c, 0x00,
  0x08, 0x00, 0x04, 0x00, 0x0a, 0x00, 0x00, 0x00, 0x02, 0x00, 0x00, 0x00,
  0x02, 0x00, 0x00, 0x00, 0x04, 0x00, 0x00, 0x00, 0x05, 0x00, 0x00, 0x00,
  0x32, 0x2e, 0x39, 0x2e, 0x31, 0x00, 0x00, 0x00, 0xd6, 0xfa, 0xff, 0xff,
  0x04, 0x00, 0x00, 0x00, 0x10, 0x00, 0x00, 0x00, 0x31, 0x2e, 0x35, 0x2e,
  0x30, 0x00, 0x00, 0x00, 0x00, 0x00, 0x00, 0x00, 0x00, 0x00, 0x00, 0x00,
  0xf4, 0xf5, 0xff, 0xff, 0xf8, 0xf5, 0xff, 0xff, 0xfc, 0xf5, 0xff, 0xff,
  0xfe, 0xfa, 0xff, 0xff, 0x04, 0x00, 0x00, 0x00, 0x40, 0x00, 0x00, 0x00,
  0xc7, 0xa6, 0xdb, 0xbe, 0xe3, 0x32, 0x88, 0x3f, 0x2c, 0xbd, 0x23, 0xbf,
  0x67, 0xfa, 0x2a, 0xbf, 0x14, 0x79, 0x4f, 0x3e, 0x54, 0xf5, 0xa4, 0x3e,
  0xe8, 0xbf, 0xb2, 0xbd, 0xde, 0xae, 0x26, 0xbf, 0xeb, 0x29, 0xbe, 0x3e,
  0x61, 0x32, 0xf5, 0xbe, 0xd5, 0xa8, 0xb0, 0xbe, 0xa6, 0xf0, 0x8a, 0x3e,
  0x1a, 0x95, 0x9d, 0xbe, 0xa3, 0x88, 0x7d, 0x3f, 0xfa, 0x8d, 0x35, 0xbe,
  0x79, 0xa6, 0x55, 0x3f, 0x4a, 0xfb, 0xff, 0xff, 0x04, 0x00, 0x00, 0x00,
  0x00, 0x04, 0x00, 0x00, 0xb2, 0x90, 0x19, 0x3d, 0x90, 0xfb, 0x81, 0xbe,
  0x6a, 0xb7, 0x70, 0xbe, 0x0b, 0xa0, 0xbb, 0x3e, 0x12, 0x80, 0x23, 0xbf,
  0xd6, 0xe8, 0x5d, 0xbe, 0xa8, 0x3f, 0x88, 0xbe, 0x8a, 0x8b, 0x75, 0x3e,
  0x74, 0xd1, 0xb5, 0xbd, 0x4b, 0xd4, 0xd0, 0x3e, 0xaf, 0xce, 0xa6, 0xbe,
  0x6d, 0xc2, 0x92, 0x3e, 0x1a, 0x44, 0x1b, 0x3e, 0x6a, 0x06, 0x9a, 0x3e,
  0xd6, 0x79, 0xc2, 0x3e, 0xe3, 0xbe, 0x3f, 0xbe, 0x32, 0xa3, 0xa1, 0x3d,
  0x27, 0x04, 0x59, 0x3e, 0x6a, 0x6a, 0x71, 0x3e, 0xfc, 0x1b, 0xca, 0x3d,
  0xa5, 0x1f, 0x70, 0xbe, 0x43, 0x76, 0xe2, 0x3e, 0xd8, 0x15, 0xf8, 0xbe,
  0xc8, 0xbc, 0x35, 0xbe, 0x1e, 0xa8, 0x94, 0xbe, 0x1f, 0xd0, 0x97, 0xbb,
  0x24, 0x7e, 0xc0, 0x3d, 0x00, 0xb8, 0x58, 0x39, 0x79, 0xde, 0x94, 0xbf,
  0xb9, 0xa9, 0x16, 0x3e, 0x03, 0xd4, 0xed, 0xbe, 0x0c, 0x4b, 0xbd, 0x3d,
  0x8b, 0x6d, 0xe4, 0xbe, 0xab, 0xfc, 0xd0, 0x3e, 0x50, 0x49, 0x7d, 0xbe,
  0x0c, 0x34, 0x22, 0xbe, 0xad, 0xe0, 0xbf, 0xbe, 0x71, 0xb5, 0xc6, 0x3d,
  0x30, 0xe6, 0xc2, 0xbe, 0x70, 0x37, 0xa0, 0xbe, 0x4c, 0x46, 0x95, 0xbd,
  0x53, 0xd6, 0x31, 0x3d, 0xfc, 0x6c, 0xeb, 0xbd, 0x38, 0xbe, 0xfc, 0xbd,
  0x18, 0xa9, 0x05, 0xbe, 0x6b, 0xeb, 0xe4, 0x3e, 0xb0, 0x83, 0x81, 0x3e,
  0xae, 0x4b, 0x6c, 0x3e, 0x55, 0x48, 0x6b, 0xbd, 0xa0, 0x2c, 0x83, 0x3d,
  0x96, 0x47, 0x30, 0xbb, 0xdd, 0xb0, 0xdd, 0x3e, 0xf2, 0x99, 0xdd, 0xbe,
  0xe6, 0xd0, 0xd4, 0x3d, 0x87, 0x6d, 0x18, 0xbf, 0x8d, 0xcf, 0x94, 0x3e,
  0x00, 0x7f, 0x47, 0x3b, 0xc5, 0x91, 0x4d, 0x3e, 0x9a, 0xdc, 0x28, 0xbe,
  0xf5, 0xa8, 0xd7, 0x3e, 0xa2, 0x79, 0x85, 0x3d, 0x64, 0x02, 0x5b, 0x3d,
  0x5b, 0x14, 0xa1, 0xbb, 0x77, 0xc9, 0x95, 0x3e, 0xd8, 0xac, 0x71, 0x3d,
  0x6e, 0x8b, 0x46, 0x3e, 0xd1, 0x68, 0x8c, 0xbe, 0xae, 0xcc, 0x7e, 0xbe,
  0x90, 0x2d, 0x35, 0xbe, 0x60, 0x34, 0xed, 0x3c, 0x5c, 0xe6, 0x9f, 0x3d,
  0xc8, 0x34, 0x4e, 0xbd, 0x60, 0xbf, 0xac, 0xbc, 0x30, 0xec, 0xa0, 0x3c,
  0x5a, 0x14, 0x72, 0x3e, 0x6f, 0xca, 0xcf, 0x3e, 0xdc, 0x7a, 0xb9, 0x3d,
  0x60, 0x17, 0xa1, 0xbd, 0xa5, 0x24, 0x4a, 0xbe, 0x5f, 0x67, 0xb6, 0xbe,
  0x8a, 0xe8, 0x86, 0xbd, 0x69, 0x81, 0xcc, 0x3e, 0x51, 0xba, 0xd6, 0xbe,
  0x6c, 0x30, 0x2f, 0xbe, 0xdf, 0x13, 0x87, 0x3e, 0x41, 0xe4, 0x71, 0xbe,
  0xac, 0x79, 0xb7, 0xbc, 0xa2, 0x50, 0x1e, 0x3e, 0x91, 0x5f, 0x50, 0xbe,
  0x9f, 0x97, 0xd7, 0xbe, 0x83, 0xdb, 0x85, 0x3e, 0xda, 0x22, 0x92, 0xbe,
  0xb8, 0xac, 0xc1, 0x3e, 0x00, 0x80, 0xec, 0x37, 0xd4, 0xd6, 0xc5, 0xbc,
  0x85, 0x69, 0xbb, 0x3e, 0xe2, 0xbe, 0x43, 0xbe, 0x86, 0xf0, 0xab, 0xbe,
  0xf0, 0xf1, 0x95, 0xbe, 0x7d, 0x51, 0x8c, 0xbe, 0x0a, 0x48, 0x7c, 0x3e,
  0x7e, 0x39, 0x63, 0xbe, 0xc0, 0x05, 0x4a, 0xbc, 0xc6, 0xa1, 0x03, 0x3e,
  0xaf, 0x48, 0xb1, 0x3e, 0xc8, 0x28, 0x37, 0xbe, 0xa8, 0x56, 0x47, 0xbd,
  0xc0, 0xc3, 0xdd, 0xbd, 0x90, 0xad, 0x01, 0x3d, 0x53, 0xc2, 0xb2, 0xbe,
  0x78, 0x6b, 0xeb, 0xbd, 0x68, 0x5a, 0x23, 0x3d, 0x48, 0xb7, 0xf2, 0xbd,
  0x74, 0x44, 0xc9, 0x3d, 0xc2, 0x52, 0x2b, 0xbf, 0x6a, 0x69, 0xab, 0xbe,
  0x27, 0x03, 0x06, 0xbf, 0xfa, 0xe1, 0xff, 0x3e, 0xea, 0xdb, 0x03, 0xbe,
  0x0a, 0x68, 0x71, 0x3e, 0x72, 0x74, 0x37, 0xbe, 0x1d, 0x29, 0xb8, 0x3d,
  0x2e, 0xe6, 0xbc, 0xbe, 0x5e, 0x05, 0x9a, 0xbe, 0x09, 0x40, 0xa7, 0x3e,
  0x6e, 0x6e, 0x25, 0x3e, 0xcd, 0xdd, 0x0f, 0xbd, 0xb5, 0xd8, 0xc9, 0x3e,
  0xc0, 0x6b, 0x59, 0xbe, 0xb4, 0x9e, 0xd5, 0x3d, 0x80, 0x54, 0x81, 0xbe,
  0xe4, 0x2e, 0x0a, 0xbe, 0x70, 0x00, 0x45, 0x3d, 0x8f, 0x06, 0xd1, 0xbe,
  0xcf, 0x7f, 0xb0, 0x3e, 0x1a, 0xd7, 0x5d, 0x3e, 0x36, 0x3c, 0x48, 0x3e,
  0x1c, 0x83, 0xb1, 0x3e, 0x40, 0x90, 0x1f, 0xbd, 0xbb, 0x86, 0xb4, 0x3e,
  0x25, 0x42, 0x67, 0xbe, 0x2c, 0xac, 0xac, 0x3d, 0x46, 0x43, 0x10, 0xbe,
  0xb4, 0x63, 0xb8, 0xbe, 0x6c, 0x2c, 0xc3, 0xbc, 0x4b, 0x6b, 0x81, 0x3e,
  0x54, 0x49, 0xcb, 0xbe, 0xdf, 0x8f, 0x8d, 0x3e, 0x79, 0x47, 0x0f, 0xbf,
  0x7a, 0x10, 0x3d, 0x3e, 0x8a, 0xc1, 0x04, 0xbf, 0xc6, 0x24, 0x2e, 0x3e,
  0x85, 0x67, 0x91, 0x3e, 0x5b, 0xf8, 0xdb, 0x3d, 0xdb, 0x6e, 0x88, 0x3e,
  0x34, 0xaa, 0x0c, 0xbe, 0xd6, 0x30, 0x3e, 0x3e, 0xf8, 0x53, 0x19, 0x3f,
  0xaf, 0x25, 0x36, 0x3d, 0xd0, 0xe3, 0x5b, 0xbe, 0xf0, 0x12, 0x7c, 0x3e,
  0xce, 0x4a, 0x82, 0x3e, 0x0f, 0x0b, 0xd1, 0xbd, 0x3a, 0x57, 0x47, 0x3e,
  0x31, 0xea, 0x1e, 0xbe, 0x0a, 0x18, 0x52, 0x3e, 0xa6, 0xad, 0x83, 0xbe,
  0xab, 0xfe, 0xa1, 0xbe, 0x64, 0x5d, 0x90, 0xbe, 0x91, 0x39, 0x8e, 0x3e,
  0x9c, 0xfe, 0x61, 0xbe, 0x24, 0xf5, 0xec, 0x3d, 0x00, 0xf2, 0x6f, 0xbf,
  0x1f, 0x60, 0x1a, 0x3f, 0xa0, 0x79, 0xe4, 0x3d, 0x80, 0x6d, 0x34, 0x3c,
  0xee, 0xdc, 0x02, 0x3d, 0x8b, 0x66, 0x31, 0xba, 0x6a, 0x24, 0x80, 0x3d,
  0xf3, 0x74, 0x66, 0xbe, 0x38, 0x51, 0x6a, 0xbe, 0x2b, 0xe2, 0x0b, 0x3e,
  0x86, 0xc0, 0xbf, 0x3e, 0xcd, 0x5e, 0x90, 0x3e, 0x47, 0x53, 0x8a, 0xbe,
  0xae, 0xf6, 0x9d, 0x3e, 0x1c, 0x80, 0xcc, 0x3d, 0x00, 0x47, 0xe0, 0xbd,
  0x99, 0xfc, 0x29, 0x3f, 0x47, 0x1e, 0x58, 0x3d, 0xff, 0x5b, 0x7d, 0x3d,
  0xca, 0x18, 0xa3, 0xbe, 0x89, 0x6a, 0x51, 0xbe, 0x92, 0xf6, 0x51, 0xbe,
  0x1f, 0x40, 0xf7, 0x3e, 0x40, 0x76, 0x5e, 0xbd, 0xbf, 0xe0, 0x8d, 0x3d,
  0x5f, 0x8c, 0x00, 0x3f, 0xaa, 0xa6, 0x08, 0xbf, 0x9c, 0xa3, 0xb0, 0x3d,
  0xfc, 0x6a, 0xf1, 0x3d, 0xa5, 0xfc, 0xa1, 0xbe, 0x46, 0x9d, 0xaa, 0xbe,
  0x53, 0xb7, 0xb8, 0x3e, 0x92, 0xd8, 0x3f, 0xbf, 0xc7, 0x26, 0x4a, 0x3e,
  0x48, 0xc6, 0xc7, 0x3e, 0xb3, 0x6c, 0x86, 0x3e, 0x24, 0x98, 0xfe, 0xbe,
  0xa3, 0xe9, 0xfb, 0x3c, 0x49, 0x21, 0xed, 0xbd, 0x0b, 0x77, 0x85, 0x3e,
  0xa7, 0xc9, 0x79, 0xbe, 0x25, 0x77, 0xca, 0x3e, 0xf5, 0xb1, 0x48, 0xbf,
  0xd8, 0xea, 0x07, 0xbd, 0x39, 0x75, 0xd9, 0xbe, 0x2a, 0x48, 0xfb, 0x3e,
  0x49, 0x37, 0x86, 0x3e, 0xb8, 0x04, 0x3f, 0xbe, 0x73, 0x98, 0x8d, 0xbf,
  0x20, 0x0c, 0x06, 0x3f, 0xbd, 0x56, 0x59, 0x3e, 0x5d, 0xc3, 0xa9, 0x3e,
  0x6f, 0xc4, 0x5d, 0x3e, 0x8c, 0xde, 0xb5, 0xbe, 0x08, 0x6f, 0xf7, 0x3e,
  0xa4, 0x57, 0xe7, 0xbd, 0xbe, 0x4f, 0xef, 0x3d, 0x38, 0xaf, 0x72, 0xbe,
  0xdb, 0x77, 0xb3, 0xbe, 0xe8, 0xa3, 0x59, 0xbe, 0x2c, 0xed, 0xc7, 0x3d,
  0x6a, 0xc0, 0x99, 0xbe, 0x50, 0x44, 0x05, 0x3d, 0x82, 0x28, 0x80, 0xbe,
  0xbb, 0x74, 0x3d, 0xbf, 0x33, 0x8b, 0x48, 0x3e, 0xaa, 0x8d, 0x89, 0x3e,
  0x03, 0x92, 0x94, 0x3e, 0xe8, 0x48, 0xfe, 0x3d, 0xc3, 0xa9, 0xcb, 0xbd,
  0xe1, 0x2d, 0x9f, 0xbe, 0xbe, 0x66, 0xb7, 0xbe, 0x45, 0x73, 0xac, 0x3e,
  0xd0, 0x14, 0x1b, 0xbe, 0xd2, 0x2f, 0x19, 0x3e, 0xb7, 0x3d, 0xa0, 0x3e,
  0x0e, 0xed, 0xb4, 0xbe, 0x4a, 0x49, 0xe0, 0xbd, 0xae, 0xb2, 0x42, 0x3e,
  0x15, 0x7d, 0xc1, 0x3e, 0x73, 0xa7, 0x04, 0x3f, 0xa7, 0xb0, 0xfa, 0xbd,
  0x57, 0xc6, 0x50, 0x3e, 0x0f, 0x8a, 0xcf, 0x3e, 0x56, 0xff, 0xff, 0xff,
  0x04, 0x00, 0x00, 0x00, 0x40, 0x00, 0x00, 0x00, 0xd4, 0x90, 0xf9, 0x3e,
  0xf0, 0x57, 0x1f, 0x3b, 0x7c, 0x7c, 0xdb, 0x3e, 0x14, 0x25, 0x1d, 0xbe,
  0x96, 0x0d, 0x34, 0x3f, 0xf6, 0x38, 0xa3, 0x3e, 0x95, 0x7f, 0x8d, 0x3e,
  0xe2, 0xbf, 0xd4, 0xbe, 0xba, 0xe1, 0x8b, 0xbe, 0xb0, 0xd7, 0x8a, 0x3e,
  0x02, 0xc0, 0x7a, 0xbe, 0x12, 0xa5, 0x02, 0xbf, 0xe9, 0x7b, 0x79, 0x3e,
  0x9d, 0xbc, 0x83, 0x3d, 0xb7, 0x06, 0xff, 0x3e, 0xef, 0x9b, 0xf1, 0xbe,
  0xa2, 0xff, 0xff, 0xff, 0x04, 0x00, 0x00, 0x00, 0x40, 0x00, 0x00, 0x00,
  0x6d, 0xb3, 0x8b, 0x3e, 0x3b, 0xe9, 0x00, 0x3f, 0xd9, 0xc6, 0x82, 0x3e,
  0xe1, 0xac, 0x40, 0x3e, 0x00, 0x00, 0x00, 0x00, 0x0d, 0x39, 0x4f, 0xbb,
  0x00, 0x00, 0x00, 0x00, 0x5b, 0x01, 0x82, 0x3e, 0x9a, 0x38, 0xcf, 0xbb,
  0x2a, 0x72, 0x87, 0x3e, 0x36, 0x2f, 0x37, 0x3e, 0xdf, 0xa4, 0x75, 0xbe,
  0x5b, 0xcd, 0x38, 0x3e, 0x40, 0x3a, 0x02, 0x3f, 0x10, 0x36, 0x35, 0x3e,
  0x46, 0xff, 0xcf, 0xbe, 0xee, 0xff, 0xff, 0xff, 0x04, 0x00, 0x00, 0x00,
  0x04, 0x00, 0x00, 0x00, 0x3a, 0xed, 0x7c, 0xbe, 0x00, 0x00, 0x06, 0x00,
  0x08, 0x00, 0x04, 0x00, 0x06, 0x00, 0x00, 0x00, 0x04, 0x00, 0x00, 0x00,
  0x40, 0x00, 0x00, 0x00, 0xc1, 0xce, 0xb7, 0xbe, 0x35, 0x9b, 0x81, 0xbc,
  0x28, 0x74, 0x97, 0x3e, 0x00, 0x00, 0x00, 0x00, 0xaf, 0x36, 0x07, 0xbe,
  0x36, 0x4a, 0x20, 0x3f, 0xaa, 0x96, 0x13, 0xbf, 0x00, 0x00, 0x00, 0x00,
  0x00, 0x00, 0x00, 0x00, 0xb7, 0x30, 0x87, 0x3e, 0x00, 0x00, 0x00, 0x00,
  0x00, 0x00, 0x00, 0x00, 0x66, 0x12, 0x2b, 0xbf, 0x01, 0x65, 0x1e, 0x3f,
  0x6f, 0xe6, 0x91, 0xbe, 0x00, 0x00, 0x00, 0x00, 0x54, 0xfb, 0xff, 0xff,
  0x58, 0xfb, 0xff, 0xff, 0x0f, 0x00, 0x00, 0x00, 0x4d, 0x4c, 0x49, 0x52,
  0x20, 0x43, 0x6f, 0x6e, 0x76, 0x65, 0x72, 0x74, 0x65, 0x64, 0x2e, 0x00,
  0x01, 0x00, 0x00, 0x00, 0x14, 0x00, 0x00, 0x00, 0x00, 0x00, 0x0e, 0x00,
  0x18, 0x00, 0x14, 0x00, 0x10, 0x00, 0x0c, 0x00, 0x08, 0x00, 0x04, 0x00,
  0x0e, 0x00, 0x00, 0x00, 0x14, 0x00, 0x00, 0x00, 0x1c, 0x00, 0x00, 0x00,
  0xd8, 0x00, 0x00, 0x00, 0xdc, 0x00, 0x00, 0x00, 0xe0, 0x00, 0x00, 0x00,
  0x04, 0x00, 0x00, 0x00, 0x6d, 0x61, 0x69, 0x6e, 0x00, 0x00, 0x00, 0x00,
  0x03, 0x00, 0x00, 0x00, 0x80, 0x00, 0x00, 0x00, 0x38, 0x00, 0x00, 0x00,
  0x04, 0x00, 0x00, 0x00, 0x9a, 0xff, 0xff, 0xff, 0x10, 0x00, 0x00, 0x00,
  0x00, 0x00, 0x00, 0x08, 0x0c, 0x00, 0x00, 0x00, 0x10, 0x00, 0x00, 0x00,
  0xd0, 0xfb, 0xff, 0xff, 0x01, 0x00, 0x00, 0x00, 0x09, 0x00, 0x00, 0x00,
  0x03, 0x00, 0x00, 0x00, 0x08, 0x00, 0x00, 0x00, 0x06, 0x00, 0x00, 0x00,
  0x02, 0x00, 0x00, 0x00, 0xca, 0xff, 0xff, 0xff, 0x10, 0x00, 0x00, 0x00,
  0x00, 0x00, 0x00, 0x08, 0x10, 0x00, 0x00, 0x00, 0x14, 0x00, 0x00, 0x00,
  0xba, 0xff, 0xff, 0xff, 0x00, 0x00, 0x00, 0x01, 0x01, 0x00, 0x00, 0x00,
  0x08, 0x00, 0x00, 0x00, 0x03, 0x00, 0x00, 0x00, 0x07, 0x00, 0x00, 0x00,
  0x05, 0x00, 0x00, 0x00, 0x03, 0x00, 0x00, 0x00, 0x00, 0x00, 0x0e, 0x00,
  0x16, 0x00, 0x00, 0x00, 0x10, 0x00, 0x0c, 0x00, 0x0b, 0x00, 0x04, 0x00,
  0x0e, 0x00, 0x00, 0x00, 0x18, 0x00, 0x00, 0x00, 0x00, 0x00, 0x00, 0x08,
  0x18, 0x00, 0x00, 0x00, 0x1c, 0x00, 0x00, 0x00, 0x00, 0x00, 0x06, 0x00,
  0x08, 0x00, 0x07, 0x00, 0x06, 0x00, 0x00, 0x00, 0x00, 0x00, 0x00, 0x01,
  0x01, 0x00, 0x00, 0x00, 0x07, 0x00, 0x00, 0x00, 0x03, 0x00, 0x00, 0x00,
  0x00, 0x00, 0x00, 0x00, 0x04, 0x00, 0x00, 0x00, 0x01, 0x00, 0x00, 0x00,
  0x01, 0x00, 0x00, 0x00, 0x09, 0x00, 0x00, 0x00, 0x01, 0x00, 0x00, 0x00,
  0x00, 0x00, 0x00, 0x00, 0x0a, 0x00, 0x00, 0x00, 0x5c, 0x03, 0x00, 0x00,
  0xf8, 0x02, 0x00, 0x00, 0x94, 0x02, 0x00, 0x00, 0x40, 0x02, 0x00, 0x00,
  0xfc, 0x01, 0x00, 0x00, 0xb4, 0x01, 0x00, 0x00, 0x6c, 0x01, 0x00, 0x00,
  0xe8, 0x00, 0x00, 0x00, 0x5c, 0x00, 0x00, 0x00, 0x04, 0x00, 0x00, 0x00,
  0xe0, 0xfc, 0xff, 0xff, 0x14, 0x00, 0x00, 0x00, 0x1c, 0x00, 0x00, 0x00,
  0x1c, 0x00, 0x00, 0x00, 0x0a, 0x00, 0x00, 0x00, 0x34, 0x00, 0x00, 0x00,
  0x02, 0x00, 0x00, 0x00, 0xff, 0xff, 0xff, 0xff, 0x01, 0x00, 0x00, 0x00,
  0xcc, 0xfc, 0xff, 0xff, 0x19, 0x00, 0x00, 0x00, 0x53, 0x74, 0x61, 0x74,
  0x65, 0x66, 0x75, 0x6c, 0x50, 0x61, 0x72, 0x74, 0x69, 0x74, 0x69, 0x6f,
  0x6e, 0x65, 0x64, 0x43, 0x61, 0x6c, 0x6c, 0x3a, 0x30, 0x00, 0x00, 0x00,
  0x02, 0x00, 0x00, 0x00, 0x01, 0x00, 0x00, 0x00, 0x01, 0x00, 0x00, 0x00,
  0x34, 0xfd, 0xff, 0xff, 0x14, 0x00, 0x00, 0x00, 0x1c, 0x00, 0x00, 0x00,
  0x1c, 0x00, 0x00, 0x00, 0x09, 0x00, 0x00, 0x00, 0x68, 0x00, 0x00, 0x00,
  0x02, 0x00, 0x00, 0x00, 0xff, 0xff, 0xff, 0xff, 0x10, 0x00, 0x00, 0x00,
  0x20, 0xfd, 0xff, 0xff, 0x4c, 0x00, 0x00, 0x00, 0x73, 0x65, 0x71, 0x75,
  0x65, 0x6e, 0x74, 0x69, 0x61, 0x6c, 0x2f, 0x64, 0x65, 0x6e, 0x73, 0x65,
  0x5f, 0x31, 0x2f, 0x4d, 0x61, 0x74, 0x4d, 0x75, 0x6c, 0x3b, 0x73, 0x65,
  0x71, 0x75, 0x65, 0x6e, 0x74, 0x69, 0x61, 0x6c, 0x2f, 0x64, 0x65, 0x6e,
  0x73, 0x65, 0x5f, 0x31, 0x2f, 0x52, 0x65, 0x6c, 0x75, 0x3b, 0x73, 0x65,
  0x71, 0x75, 0x65, 0x6e, 0x74, 0x69, 0x61, 0x6c, 0x2f, 0x64, 0x65, 0x6e,
  0x73, 0x65, 0x5f, 0x31, 0x2f, 0x42, 0x69, 0x61, 0x73, 0x41, 0x64, 0x64,
  0x00, 0x00, 0x00, 0x00, 0x02, 0x00, 0x00, 0x00, 0x01, 0x00, 0x00, 0x00,
  0x10, 0x00, 0x00, 0x00, 0xbc, 0xfd, 0xff, 0xff, 0x14, 0x00, 0x00, 0x00,
  0x1c, 0x00, 0x00, 0x00, 0x1c, 0x00, 0x00, 0x00, 0x08, 0x00, 0x00, 0x00,
  0x60, 0x00, 0x00, 0x00, 0x02, 0x00, 0x00, 0x00, 0xff, 0xff, 0xff, 0xff,
  0x10, 0x00, 0x00, 0x00, 0xa8, 0xfd, 0xff, 0xff, 0x46, 0x00, 0x00, 0x00,
  0x73, 0x65, 0x71, 0x75, 0x65, 0x6e, 0x74, 0x69, 0x61, 0x6c, 0x2f, 0x64,
  0x65, 0x6e, 0x73, 0x65, 0x2f, 0x4d, 0x61, 0x74, 0x4d, 0x75, 0x6c, 0x3b,
  0x73, 0x65, 0x71, 0x75, 0x65, 0x6e, 0x74, 0x69, 0x61, 0x6c, 0x2f, 0x64,
  0x65, 0x6e, 0x73, 0x65, 0x2f, 0x52, 0x65, 0x6c, 0x75, 0x3b, 0x73, 0x65,
  0x71, 0x75, 0x65, 0x6e, 0x74, 0x69, 0x61, 0x6c, 0x2f, 0x64, 0x65, 0x6e,
  0x73, 0x65, 0x2f, 0x42, 0x69, 0x61, 0x73, 0x41, 0x64, 0x64, 0x00, 0x00,
  0x02, 0x00, 0x00, 0x00, 0x01, 0x00, 0x00, 0x00, 0x10, 0x00, 0x00, 0x00,
  0x96, 0xfe, 0xff, 0xff, 0x10, 0x00, 0x00, 0x00, 0x10, 0x00, 0x00, 0x00,
  0x07, 0x00, 0x00, 0x00, 0x28, 0x00, 0x00, 0x00, 0x18, 0xfe, 0xff, 0xff,
  0x19, 0x00, 0x00, 0x00, 0x73, 0x65, 0x71, 0x75, 0x65, 0x6e, 0x74, 0x69,
  0x61, 0x6c, 0x2f, 0x64, 0x65, 0x6e, 0x73, 0x65, 0x5f, 0x32, 0x2f, 0x4d,
  0x61, 0x74, 0x4d, 0x75, 0x6c, 0x00, 0x00, 0x00, 0x02, 0x00, 0x00, 0x00,
  0x01, 0x00, 0x00, 0x00, 0x10, 0x00, 0x00, 0x00, 0xda, 0xfe, 0xff, 0xff,
  0x10, 0x00, 0x00, 0x00, 0x10, 0x00, 0x00, 0x00, 0x06, 0x00, 0x00, 0x00,
  0x28, 0x00, 0x00, 0x00, 0x5c, 0xfe, 0xff, 0xff, 0x19, 0x00, 0x00, 0x00,
  0x73, 0x65, 0x71, 0x75, 0x65, 0x6e, 0x74, 0x69, 0x61, 0x6c, 0x2f, 0x64,
  0x65, 0x6e, 0x73, 0x65, 0x5f, 0x31, 0x2f, 0x4d, 0x61, 0x74, 0x4d, 0x75,
  0x6c, 0x00, 0x00, 0x00, 0x02, 0x00, 0x00, 0x00, 0x10, 0x00, 0x00, 0x00,
  0x10, 0x00, 0x00, 0x00, 0x1e, 0xff, 0xff, 0xff, 0x10, 0x00, 0x00, 0x00,
  0x10, 0x00, 0x00, 0x00, 0x05, 0x00, 0x00, 0x00, 0x24, 0x00, 0x00, 0x00,
  0xa0, 0xfe, 0xff, 0xff, 0x17, 0x00, 0x00, 0x00, 0x73, 0x65, 0x71, 0x75,
  0x65, 0x6e, 0x74, 0x69, 0x61, 0x6c, 0x2f, 0x64, 0x65, 0x6e, 0x73, 0x65,
  0x2f, 0x4d, 0x61, 0x74, 0x4d, 0x75, 0x6c, 0x00, 0x02, 0x00, 0x00, 0x00,
  0x10, 0x00, 0x00, 0x00, 0x01, 0x00, 0x00, 0x00, 0x5e, 0xff, 0xff, 0xff,
  0x10, 0x00, 0x00, 0x00, 0x10, 0x00, 0x00, 0x00, 0x04, 0x00, 0x00, 0x00,
  0x38, 0x00, 0x00, 0x00, 0xe0, 0xfe, 0xff, 0xff, 0x29, 0x00, 0x00, 0x00,
  0x73, 0x65, 0x71, 0x75, 0x65, 0x6e, 0x74, 0x69, 0x61, 0x6c, 0x2f, 0x64,
  0x65, 0x6e, 0x73, 0x65, 0x5f, 0x31, 0x2f, 0x42, 0x69, 0x61, 0x73, 0x41,
  0x64, 0x64, 0x2f, 0x52, 0x65, 0x61, 0x64, 0x56, 0x61, 0x72, 0x69, 0x61,
  0x62, 0x6c, 0x65, 0x4f, 0x70, 0x00, 0x00, 0x00, 0x01, 0x00, 0x00, 0x00,
  0x10, 0x00, 0x00, 0x00, 0xae, 0xff, 0xff, 0xff, 0x10, 0x00, 0x00, 0x00,
  0x10, 0x00, 0x00, 0x00, 0x03, 0x00, 0x00, 0x00, 0x38, 0x00, 0x00, 0x00,
  0x30, 0xff, 0xff, 0xff, 0x29, 0x00, 0x00, 0x00, 0x73, 0x65, 0x71, 0x75,
  0x65, 0x6e, 0x74, 0x69, 0x61, 0x6c, 0x2f, 0x64, 0x65, 0x6e, 0x73, 0x65,
  0x5f, 0x32, 0x2f, 0x42, 0x69, 0x61, 0x73, 0x41, 0x64, 0x64, 0x2f, 0x52,
  0x65, 0x61, 0x64, 0x56, 0x61, 0x72, 0x69, 0x61, 0x62, 0x6c, 0x65, 0x4f,
  0x70, 0x00, 0x00, 0x00, 0x01, 0x00, 0x00, 0x00, 0x01, 0x00, 0x00, 0x00,
  0x00, 0x00, 0x0e, 0x00, 0x14, 0x00, 0x10, 0x00, 0x00, 0x00, 0x0c, 0x00,
  0x08, 0x00, 0x04, 0x00, 0x0e, 0x00, 0x00, 0x00, 0x10, 0x00, 0x00, 0x00,
  0x10, 0x00, 0x00, 0x00, 0x02, 0x00, 0x00, 0x00, 0x34, 0x00, 0x00, 0x00,
  0x90, 0xff, 0xff, 0xff, 0x27, 0x00, 0x00, 0x00, 0x73, 0x65, 0x71, 0x75,
  0x65, 0x6e, 0x74, 0x69, 0x61, 0x6c, 0x2f, 0x64, 0x65, 0x6e, 0x73, 0x65,
  0x2f, 0x42, 0x69, 0x61, 0x73, 0x41, 0x64, 0x64, 0x2f, 0x52, 0x65, 0x61,
  0x64, 0x56, 0x61, 0x72, 0x69, 0x61, 0x62, 0x6c, 0x65, 0x4f, 0x70, 0x00,
  0x01, 0x00, 0x00, 0x00, 0x10, 0x00, 0x00, 0x00, 0x14, 0x00, 0x18, 0x00,
  0x14, 0x00, 0x00, 0x00, 0x10, 0x00, 0x0c, 0x00, 0x08, 0x00, 0x00, 0x00,
  0x00, 0x00, 0x04, 0x00, 0x14, 0x00, 0x00, 0x00, 0x14, 0x00, 0x00, 0x00,
  0x20, 0x00, 0x00, 0x00, 0x20, 0x00, 0x00, 0x00, 0x01, 0x00, 0x00, 0x00,
  0x3c, 0x00, 0x00, 0x00, 0x02, 0x00, 0x00, 0x00, 0xff, 0xff, 0xff, 0xff,
  0x01, 0x00, 0x00, 0x00, 0x04, 0x00, 0x04, 0x00, 0x04, 0x00, 0x00, 0x00,
  0x1d, 0x00, 0x00, 0x00, 0x73, 0x65, 0x72, 0x76, 0x69, 0x6e, 0x67, 0x5f,
  0x64, 0x65, 0x66, 0x61, 0x75, 0x6c, 0x74, 0x5f, 0x64, 0x65, 0x6e, 0x73,
  0x65, 0x5f, 0x69, 0x6e, 0x70, 0x75, 0x74, 0x3a, 0x30, 0x00, 0x00, 0x00,
  0x02, 0x00, 0x00, 0x00, 0x01, 0x00, 0x00, 0x00, 0x01, 0x00, 0x00, 0x00,
  0x01, 0x00, 0x00, 0x00, 0x10, 0x00, 0x00, 0x00, 0x0c, 0x00, 0x0c, 0x00,
  0x0b, 0x00, 0x00, 0x00, 0x00, 0x00, 0x04, 0x00, 0x0c, 0x00, 0x00, 0x00,
  0x09, 0x00, 0x00, 0x00, 0x00, 0x00, 0x00, 0x09
};

#endif //Z1_SINE_MODEL_H