#ifndef Z1_SINE_MODEL_H
#define Z1_SINE_MODEL_H


unsigned int z1_sine_model_len = 3116;
unsigned char z1_sine_model[] = {
 0x1c, 0x00, 0x00, 0x00, 0x54, 0x46, 0x4c, 0x33, 0x14, 0x00, 0x20, 0x00,
  0x1c, 0x00, 0x18, 0x00, 0x14, 0x00, 0x10, 0x00, 0x0c, 0x00, 0x00, 0x00,
  0x08, 0x00, 0x04, 0x00, 0x14, 0x00, 0x00, 0x00, 0x1c, 0x00, 0x00, 0x00,
  0x90, 0x00, 0x00, 0x00, 0xe8, 0x00, 0x00, 0x00, 0x04, 0x07, 0x00, 0x00,
  0x14, 0x07, 0x00, 0x00, 0xd8, 0x0b, 0x00, 0x00, 0x03, 0x00, 0x00, 0x00,
  0x01, 0x00, 0x00, 0x00, 0x10, 0x00, 0x00, 0x00, 0x00, 0x00, 0x0a, 0x00,
  0x10, 0x00, 0x0c, 0x00, 0x08, 0x00, 0x04, 0x00, 0x0a, 0x00, 0x00, 0x00,
  0x0c, 0x00, 0x00, 0x00, 0x1c, 0x00, 0x00, 0x00, 0x38, 0x00, 0x00, 0x00,
  0x0f, 0x00, 0x00, 0x00, 0x73, 0x65, 0x72, 0x76, 0x69, 0x6e, 0x67, 0x5f,
  0x64, 0x65, 0x66, 0x61, 0x75, 0x6c, 0x74, 0x00, 0x01, 0x00, 0x00, 0x00,
  0x04, 0x00, 0x00, 0x00, 0x98, 0xff, 0xff, 0xff, 0x09, 0x00, 0x00, 0x00,
  0x04, 0x00, 0x00, 0x00, 0x07, 0x00, 0x00, 0x00, 0x64, 0x65, 0x6e, 0x73,
  0x65, 0x5f, 0x32, 0x00, 0x01, 0x00, 0x00, 0x00, 0x04, 0x00, 0x00, 0x00,
  0xc6, 0xf9, 0xff, 0xff, 0x04, 0x00, 0x00, 0x00, 0x0b, 0x00, 0x00, 0x00,
  0x64, 0x65, 0x6e, 0x73, 0x65, 0x5f, 0x69, 0x6e, 0x70, 0x75, 0x74, 0x00,
  0x02, 0x00, 0x00, 0x00, 0x34, 0x00, 0x00, 0x00, 0x04, 0x00, 0x00, 0x00,
  0xdc, 0xff, 0xff, 0xff, 0x0c, 0x00, 0x00, 0x00, 0x04, 0x00, 0x00, 0x00,
  0x13, 0x00, 0x00, 0x00, 0x43, 0x4f, 0x4e, 0x56, 0x45, 0x52, 0x53, 0x49,
  0x4f, 0x4e, 0x5f, 0x4d, 0x45, 0x54, 0x41, 0x44, 0x41, 0x54, 0x41, 0x00,
  0x08, 0x00, 0x0c, 0x00, 0x08, 0x00, 0x04, 0x00, 0x08, 0x00, 0x00, 0x00,
  0x0b, 0x00, 0x00, 0x00, 0x04, 0x00, 0x00, 0x00, 0x13, 0x00, 0x00, 0x00,
  0x6d, 0x69, 0x6e, 0x5f, 0x72, 0x75, 0x6e, 0x74, 0x69, 0x6d, 0x65, 0x5f,
  0x76, 0x65, 0x72, 0x73, 0x69, 0x6f, 0x6e, 0x00, 0x0d, 0x00, 0x00, 0x00,
  0x18, 0x06, 0x00, 0x00, 0x10, 0x06, 0x00, 0x00, 0xc0, 0x05, 0x00, 0x00,
  0xa4, 0x05, 0x00, 0x00, 0x54, 0x05, 0x00, 0x00, 0x04, 0x05, 0x00, 0x00,
  0xf4, 0x00, 0x00, 0x00, 0xa4, 0x00, 0x00, 0x00, 0x9c, 0x00, 0x00, 0x00,
  0x94, 0x00, 0x00, 0x00, 0x8c, 0x00, 0x00, 0x00, 0x6c, 0x00, 0x00, 0x00,
  0x04, 0x00, 0x00, 0x00, 0x72, 0xfa, 0xff, 0xff, 0x04, 0x00, 0x00, 0x00,
  0x58, 0x00, 0x00, 0x00, 0x0c, 0x00, 0x00, 0x00, 0x08, 0x00, 0x0e, 0x00,
  0x08, 0x00, 0x04, 0x00, 0x08, 0x00, 0x00, 0x00, 0x10, 0x00, 0x00, 0x00,
  0x28, 0x00, 0x00, 0x00, 0x00, 0x00, 0x06, 0x00, 0x08, 0x00, 0x04, 0x00,
  0x06, 0x00, 0x00, 0x00, 0x04, 0x00, 0x00, 0x00, 0x01, 0x00, 0x00, 0x00,
  0xea, 0x03, 0x00, 0x00, 0x00, 0x00, 0x0a, 0x00, 0x10, 0x00, 0x0c, 0x00,
  0x08, 0x00, 0x04, 0x00, 0x0a, 0x00, 0x00, 0x00, 0x02, 0x00, 0x00, 0x00,
  0x02, 0x00, 0x00, 0x00, 0x04, 0x00, 0x00, 0x00, 0x05, 0x00, 0x00, 0x00,
  0x32, 0x2e, 0x39, 0x2e, 0x31, 0x00, 0x00, 0x00, 0xd6, 0xfa, 0xff, 0xff,
  0x04, 0x00, 0x00, 0x00, 0x10, 0x00, 0x00, 0x00, 0x31, 0x2e, 0x35, 0x2e,
  0x30, 0x00, 0x00, 0x00, 0x00, 0x00, 0x00, 0x00, 0x00, 0x00, 0x00, 0x00,
  0xf4, 0xf5, 0xff, 0xff, 0xf8, 0xf5, 0xff, 0xff, 0xfc, 0xf5, 0xff, 0xff,
  0xfe, 0xfa, 0xff, 0xff, 0x04, 0x00, 0x00, 0x00, 0x40, 0x00, 0x00, 0x00,
  0xd0, 0xf6, 0xc2, 0xbe, 0x4e, 0xc9, 0x8e, 0xbf, 0xbb, 0x5b, 0xfe, 0xbe,
  0x01, 0x2c, 0xce, 0x3f, 0x92, 0xb4, 0xe4, 0xbe, 0x7d, 0x22, 0xe0, 0x3e,
  0x95, 0x01, 0xa3, 0x3f, 0x80, 0x9a, 0xa0, 0xbd, 0xf7, 0x01, 0x7e, 0xbd,
  0xf2, 0x60, 0x02, 0xbf, 0xe7, 0x4f, 0x34, 0xbe, 0xbc, 0x31, 0x14, 0xbe,
  0x13, 0x90, 0x6a, 0xbf, 0x6a, 0xa7, 0x90, 0x3f, 0xc8, 0x3d, 0xe7, 0x3e,
  0x61, 0x03, 0x85, 0xbe, 0x4a, 0xfb, 0xff, 0xff, 0x04, 0x00, 0x00, 0x00,
  0x00, 0x04, 0x00, 0x00, 0x46, 0x83, 0x91, 0xbe, 0xad, 0xea, 0x89, 0x3e,
  0x3f, 0x4d, 0xd6, 0x3e, 0x21, 0xe4, 0x98, 0x3e, 0x87, 0x8d, 0xdf, 0x3e,
  0xc6, 0xd3, 0x50, 0x3e, 0x18, 0x82, 0x54, 0x3d, 0x74, 0x36, 0x94, 0x3d,
  0xdc, 0x10, 0xc2, 0xbe, 0xb6, 0xff, 0x3a, 0x3e, 0x88, 0x20, 0x75, 0xbd,
  0x90, 0x52, 0x15, 0xbd, 0xa0, 0x0b, 0x96, 0xbe, 0x66, 0x08, 0x12, 0x3e,
  0x2e, 0xdb, 0xfd, 0xbe, 0x71, 0xcf, 0xd8, 0x3d, 0x7c, 0xd0, 0x1a, 0xbe,
  0xba, 0x67, 0x41, 0xbe, 0x0c, 0xa4, 0xb8, 0x3e, 0x2e, 0x39, 0x98, 0xbe,
  0xec, 0x59, 0x42, 0x3e, 0x08, 0xc2, 0x90, 0xbd, 0xbd, 0xfa, 0xc7, 0xbe,
  0x62, 0x15, 0x0b, 0x3e, 0xa3, 0x31, 0xa7, 0x3e, 0x6d, 0x0b, 0xd5, 0x3e,
  0x47, 0xec, 0xae, 0xbe, 0x9c, 0xc7, 0x62, 0xbe, 0x18, 0xac, 0xba, 0xbd,
  0xa0, 0xfa, 0xca, 0xbc, 0x34, 0x12, 0xbb, 0xbd, 0x17, 0xab, 0x8b, 0xbf,
  0x17, 0xbb, 0x16, 0xbe, 0x04, 0x50, 0xcd, 0xbe, 0x82, 0xfc, 0xe8, 0x3e,
  0x55, 0xd3, 0xb2, 0x3e, 0xeb, 0x83, 0xbe, 0x3d, 0xed, 0x61, 0xc2, 0x3e,
  0x7d, 0x30, 0x83, 0x3e, 0xca, 0x1d, 0x3a, 0x3e, 0x18, 0xfc, 0x86, 0xbd,
  0x81, 0x6a, 0xd4, 0xbe, 0xa0, 0xda, 0x13, 0x3d, 0x2b, 0xe4, 0xc2, 0xbe,
  0x8b, 0x81, 0x90, 0x3e, 0xfa, 0x1b, 0x3e, 0xbe, 0xcc, 0x37, 0x3a, 0xbf,
  0xcc, 0x76, 0xf2, 0xbe, 0x29, 0x64, 0x70, 0x3f, 0x00, 0xc7, 0xed, 0x3a,
  0x3b, 0x76, 0x31, 0xbf, 0x2f, 0x28, 0x80, 0x3e, 0xb9, 0x94, 0x38, 0x3e,
  0xda, 0xeb, 0x48, 0x3e, 0x96, 0x97, 0x5d, 0x3e, 0xab, 0x63, 0xba, 0x3e,
  0xb7, 0xa3, 0xbc, 0xbe, 0x3c, 0x85, 0x92, 0xbd, 0x0e, 0x7a, 0x0c, 0xbe,
  0xf2, 0x0b, 0x9d, 0xbe, 0x78, 0x93, 0x30, 0xbe, 0x80, 0xfc, 0xad, 0xbe,
  0x3c, 0xc2, 0xa9, 0x3c, 0x72, 0x6f, 0x20, 0x3e, 0x38, 0xc0, 0xca, 0xbd,
  0x1a, 0x69, 0x1d, 0x3e, 0x4c, 0x08, 0x18, 0xbe, 0x6c, 0x64, 0xdf, 0x3d,
  0xb9, 0xd4, 0xda, 0x3c, 0x0c, 0x32, 0x98, 0xbd, 0x80, 0x85, 0x8c, 0xbd,
  0x37, 0x95, 0xa6, 0x3e, 0x82, 0x7e, 0x2b, 0xbe, 0x2c, 0x7a, 0xf5, 0x3d,
  0xd8, 0x68, 0xd0, 0xbd, 0x0f, 0x27, 0xac, 0xbe, 0x0b, 0x31, 0xd8, 0x3e,
  0x93, 0x13, 0x90, 0xbe, 0x01, 0x91, 0x8e, 0xbd, 0x9e, 0x1c, 0xca, 0x3e,
  0x4e, 0x0e, 0xdc, 0x3e, 0x8a, 0xf1, 0x54, 0x3e, 0xab, 0x15, 0xaf, 0xbc,
  0x65, 0x14, 0x96, 0x3e, 0x09, 0x58, 0xb4, 0x3e, 0x18, 0xd3, 0x71, 0xbe,
  0x7e, 0x39, 0x9d, 0xbe, 0x51, 0x7b, 0x94, 0xbe, 0x6b, 0x65, 0x89, 0x3e,
  0xd0, 0xc3, 0xb7, 0xbc, 0xe1, 0xf6, 0x6d, 0xbe, 0xe8, 0xa5, 0x1a, 0x3d,
  0xe8, 0xaf, 0x22, 0xbd, 0x0c, 0xc5, 0xf1, 0x3d, 0x0c, 0x38, 0x4d, 0xbd,
  0xc0, 0x62, 0x3e, 0x3e, 0xb6, 0xe1, 0x83, 0xbf, 0xf5, 0x49, 0x4b, 0xbe,
  0x8f, 0xb0, 0x1f, 0x3f, 0x4c, 0xbc, 0xb2, 0x3d, 0xd9, 0x7b, 0x99, 0xbd,
  0x6d, 0xd6, 0xae, 0x3e, 0x00, 0x48, 0xce, 0x39, 0x2e, 0xee, 0xdb, 0xbe,
  0x8a, 0xf7, 0x85, 0xbe, 0xa0, 0x95, 0x87, 0xbc, 0xbe, 0x8f, 0x55, 0x3e,
  0x40, 0x64, 0x1c, 0x3d, 0xec, 0xf0, 0xc3, 0xbe, 0x96, 0x4e, 0x41, 0x3e,
  0xe3, 0x01, 0xfd, 0xbe, 0x54, 0xff, 0x20, 0x3d, 0x34, 0xb1, 0xfa, 0xbe,
  0xd2, 0x2e, 0x23, 0x3e, 0x24, 0x52, 0xcc, 0x3e, 0x34, 0x8d, 0xc4, 0x3d,
  0x2b, 0x6e, 0x2e, 0xbe, 0xc2, 0x5e, 0x66, 0x3e, 0x82, 0x05, 0xbb, 0xbe,
  0x3f, 0xb8, 0x96, 0x3e, 0x08, 0x08, 0xce, 0xbd, 0xef, 0xdb, 0xc8, 0x3e,
  0xe9, 0xe1, 0x99, 0x3e, 0x68, 0xb9, 0xee, 0xbd, 0xaa, 0x98, 0xca, 0xbe,
  0xb0, 0x52, 0xe9, 0xbd, 0x3d, 0x66, 0x81, 0x3e, 0xf7, 0xec, 0x44, 0x3e,
  0xa5, 0x54, 0xfe, 0xbe, 0xcc, 0x56, 0x85, 0xbe, 0x8c, 0x89, 0xb8, 0x3e,
  0x56, 0xaf, 0x2a, 0x3e, 0x81, 0x53, 0x9e, 0x3e, 0x32, 0xe5, 0x03, 0xbe,
  0xca, 0xec, 0x72, 0x3e, 0x5f, 0x00, 0xaf, 0x3e, 0x3c, 0x43, 0xa8, 0xbe,
  0xf1, 0x2c, 0x52, 0xbe, 0x6a, 0x08, 0x6b, 0x3e, 0x62, 0x81, 0x06, 0x3e,
  0xd1, 0x42, 0x8e, 0xbe, 0x29, 0x35, 0x95, 0x3e, 0x1a, 0x3c, 0xb9, 0xbc,
  0x38, 0x01, 0xc4, 0x3e, 0x19, 0x07, 0x3b, 0xbd, 0x09, 0x7e, 0x82, 0x3e,
  0x83, 0x4c, 0xfb, 0xbc, 0x2c, 0x65, 0xd4, 0x3d, 0x6c, 0xa9, 0x99, 0xbe,
  0x28, 0x1f, 0x49, 0xbd, 0xb8, 0xc7, 0x38, 0x3d, 0x38, 0x67, 0x5e, 0xbd,
  0x5c, 0xc6, 0xd2, 0xbe, 0x7d, 0x1d, 0xcd, 0xbe, 0x97, 0xf3, 0x90, 0x3e,
  0xe6, 0x0d, 0x10, 0x3e, 0x30, 0x3c, 0x3f, 0x3d, 0xcf, 0xc8, 0x84, 0x3e,
  0x2d, 0x32, 0xcd, 0x3c, 0x02, 0x56, 0xeb, 0x3d, 0x50, 0x79, 0xec, 0xbc,
  0x2b, 0xae, 0xa1, 0x3e, 0xf5, 0xd1, 0x9a, 0xbe, 0x06, 0x25, 0x22, 0x3e,
  0x32, 0xaf, 0x8d, 0x3e, 0x26, 0x12, 0xdd, 0xbe, 0x77, 0x35, 0xb3, 0xbe,
  0x50, 0xfb, 0x58, 0x3d, 0xf0, 0x01, 0xd5, 0x3c, 0x38, 0x0b, 0x1f, 0x3d,
  0x90, 0xfa, 0x9f, 0x3c, 0x55, 0x13, 0xce, 0xbe, 0x1b, 0x58, 0xa4, 0x3e,
  0xee, 0x7b, 0x57, 0x3e, 0x58, 0x5a, 0x46, 0xbe, 0xca, 0xac, 0x58, 0xbe,
  0x03, 0x41, 0xb4, 0xbe, 0x30, 0x0e, 0xf0, 0xbd, 0xd9, 0xfa, 0xba, 0xbd,
  0xf0, 0xee, 0x97, 0xbd, 0x5a, 0x3b, 0xe7, 0x3d, 0x40, 0xbd, 0x40, 0xbd,
  0xf1, 0x2d, 0x96, 0x3e, 0x20, 0xb4, 0x77, 0x3d, 0xda, 0x66, 0x4f, 0xbe,
  0x7e, 0x63, 0x7a, 0xbe, 0x08, 0x82, 0x92, 0xbe, 0xa5, 0xa5, 0x99, 0x3e,
  0xdc, 0x8c, 0xe0, 0x3d, 0x83, 0x88, 0xda, 0x3e, 0x41, 0x79, 0x6d, 0x3e,
  0x82, 0xd4, 0xde, 0x3d, 0x90, 0xbd, 0x34, 0xbd, 0x03, 0xc1, 0x84, 0x3e,
  0x8a, 0x72, 0x25, 0x3f, 0x60, 0xb3, 0x5b, 0x3d, 0x84, 0xb6, 0x8d, 0x3c,
  0x3e, 0x02, 0x0f, 0x3e, 0x2a, 0xd2, 0x55, 0x3e, 0x2a, 0x0b, 0x8e, 0xbe,
  0x3e, 0x4d, 0x29, 0xbe, 0xc1, 0x53, 0xb9, 0x3e, 0x69, 0x9b, 0xbb, 0x3e,
  0xd7, 0xd0, 0xd5, 0x3e, 0x4a, 0x1c, 0x05, 0x3e, 0x68, 0xb2, 0xb3, 0xbd,
  0xe5, 0x0c, 0xca, 0xbe, 0x98, 0x10, 0x36, 0xbf, 0xdf, 0xa3, 0x80, 0xbf,
  0x6e, 0x29, 0x2d, 0x3e, 0x76, 0xbf, 0xba, 0x3e, 0x02, 0x3f, 0x19, 0xbe,
  0xae, 0x91, 0x17, 0x3f, 0xb0, 0x00, 0x82, 0xbc, 0x1d, 0xeb, 0x8f, 0x3e,
  0xb0, 0x97, 0xa9, 0xbd, 0xc4, 0x20, 0xcb, 0x3d, 0x40, 0xbc, 0x44, 0xbd,
  0x5a, 0x37, 0x3d, 0x3e, 0xcc, 0x51, 0xfc, 0xbd, 0x7e, 0x25, 0x29, 0x3e,
  0x68, 0x51, 0xa6, 0xbe, 0x07, 0xbc, 0x87, 0xbe, 0x0f, 0x4e, 0xcd, 0xbe,
  0x14, 0xe9, 0x8b, 0xbe, 0x8e, 0xef, 0x3e, 0x3e, 0xa8, 0xd4, 0x84, 0xbd,
  0x9b, 0x21, 0x90, 0x3e, 0x80, 0x12, 0x39, 0x3c, 0x52, 0x0c, 0xd6, 0xbe,
  0xb7, 0x0d, 0xb7, 0x3e, 0xec, 0x46, 0xc2, 0xbd, 0x70, 0x83, 0x46, 0x3d,
  0x10, 0xa9, 0x49, 0x3d, 0xe1, 0x25, 0xa4, 0xbe, 0x17, 0xed, 0xb9, 0x3e,
  0xd8, 0x90, 0xa6, 0xbe, 0xa3, 0x7d, 0xc9, 0x3e, 0xba, 0x63, 0x7e, 0x3e,
  0x71, 0xc5, 0x48, 0xbe, 0x2b, 0x5b, 0x16, 0xbf, 0x96, 0xd1, 0xc1, 0xbe,
  0xd2, 0x0a, 0x10, 0xbe, 0xfc, 0xfa, 0xa6, 0xbe, 0x1b, 0x9c, 0xfb, 0x3e,
  0xf7, 0x84, 0xd3, 0x3e, 0x40, 0x5d, 0x10, 0x3c, 0xd5, 0x83, 0xc9, 0x3e,
  0xa6, 0x91, 0x9d, 0xbe, 0xc0, 0x79, 0x14, 0x3d, 0xa0, 0x9a, 0x2f, 0x3d,
  0x80, 0x93, 0x5e, 0xbd, 0x0e, 0x8c, 0x32, 0x3e, 0x39, 0x6c, 0xd9, 0x3e,
  0x39, 0x5a, 0xf4, 0xbe, 0x94, 0xac, 0xd4, 0x3e, 0x56, 0xff, 0xff, 0xff,
  0x04, 0x00, 0x00, 0x00, 0x40, 0x00, 0x00, 0x00, 0xce, 0xc1, 0x79, 0x3e,
  0x7a, 0x68, 0x13, 0xbf, 0xad, 0x77, 0x92, 0x3d, 0x72, 0xd8, 0xe9, 0xbe,
  0x16, 0xaa, 0x64, 0x3e, 0x1a, 0x77, 0xa2, 0xbe, 0x70, 0x06, 0x15, 0xbe,
  0x28, 0xae, 0xa8, 0xbd, 0x9c, 0xc1, 0x50, 0xbe, 0xa9, 0x69, 0x0d, 0xbf,
  0xc0, 0x38, 0xe8, 0xbe, 0xcc, 0x74, 0x02, 0xbe, 0x59, 0x44, 0x91, 0xbe,
  0x31, 0xcf, 0xad, 0xbe, 0xba, 0x1f, 0xd6, 0x3e, 0xbd, 0x15, 0x2b, 0x3f,
  0xa2, 0xff, 0xff, 0xff, 0x04, 0x00, 0x00, 0x00, 0x40, 0x00, 0x00, 0x00,
  0xd6, 0x51, 0x72, 0x3d, 0x89, 0xa4, 0x92, 0x3e, 0x91, 0xe3, 0x79, 0x3e,
  0x7b, 0x84, 0x13, 0xbf, 0x6b, 0x18, 0xe2, 0x3d, 0x97, 0x7d, 0x4d, 0xbe,
  0xb1, 0x5e, 0xfc, 0x3e, 0x84, 0x19, 0xa4, 0x3d, 0x79, 0x17, 0x3a, 0xbc,
  0x94, 0x3c, 0x4f, 0xbb, 0xc5, 0x34, 0x4f, 0xbb, 0x31, 0x30, 0xdb, 0x3d,
  0x2c, 0x9c, 0xab, 0x3e, 0x53, 0xac, 0x04, 0x3f, 0x00, 0x00, 0x00, 0x00,
  0x33, 0x76, 0xb9, 0x3d, 0xee, 0xff, 0xff, 0xff, 0x04, 0x00, 0x00, 0x00,
  0x04, 0x00, 0x00, 0x00, 0x57, 0xb3, 0x61, 0xbe, 0x00, 0x00, 0x06, 0x00,
  0x08, 0x00, 0x04, 0x00, 0x06, 0x00, 0x00, 0x00, 0x04, 0x00, 0x00, 0x00,
  0x40, 0x00, 0x00, 0x00, 0x28, 0xd0, 0x21, 0xbf, 0x00, 0x00, 0x00, 0x00,
  0xe9, 0xf9, 0x30, 0x3f, 0x00, 0x00, 0x00, 0x00, 0x46, 0x94, 0x9f, 0x3e,
  0x00, 0x00, 0x00, 0x00, 0x00, 0x00, 0x00, 0x00, 0x00, 0x00, 0x00, 0x00,
  0x00, 0x00, 0x00, 0x00, 0x00, 0x00, 0x00, 0x00, 0x00, 0x00, 0x00, 0x00,
  0x00, 0x00, 0x00, 0x00, 0x00, 0x00, 0x00, 0x00, 0x00, 0x00, 0x00, 0x00,
  0xb5, 0x5c, 0x0b, 0xbf, 0x2a, 0x04, 0x8d, 0xbc, 0x54, 0xfb, 0xff, 0xff,
  0x58, 0xfb, 0xff, 0xff, 0x0f, 0x00, 0x00, 0x00, 0x4d, 0x4c, 0x49, 0x52,
  0x20, 0x43, 0x6f, 0x6e, 0x76, 0x65, 0x72, 0x74, 0x65, 0x64, 0x2e, 0x00,
  0x01, 0x00, 0x00, 0x00, 0x14, 0x00, 0x00, 0x00, 0x00, 0x00, 0x0e, 0x00,
  0x18, 0x00, 0x14, 0x00, 0x10, 0x00, 0x0c, 0x00, 0x08, 0x00, 0x04, 0x00,
  0x0e, 0x00, 0x00, 0x00, 0x14, 0x00, 0x00, 0x00, 0x1c, 0x00, 0x00, 0x00,
  0xd8, 0x00, 0x00, 0x00, 0xdc, 0x00, 0x00, 0x00, 0xe0, 0x00, 0x00, 0x00,
  0x04, 0x00, 0x00, 0x00, 0x6d, 0x61, 0x69, 0x6e, 0x00, 0x00, 0x00, 0x00,
  0x03, 0x00, 0x00, 0x00, 0x80, 0x00, 0x00, 0x00, 0x38, 0x00, 0x00, 0x00,
  0x04, 0x00, 0x00, 0x00, 0x9a, 0xff, 0xff, 0xff, 0x10, 0x00, 0x00, 0x00,
  0x00, 0x00, 0x00, 0x08, 0x0c, 0x00, 0x00, 0x00, 0x10, 0x00, 0x00, 0x00,
  0xd0, 0xfb, 0xff, 0xff, 0x01, 0x00, 0x00, 0x00, 0x09, 0x00, 0x00, 0x00,
  0x03, 0x00, 0x00, 0x00, 0x08, 0x00, 0x00, 0x00, 0x06, 0x00, 0x00, 0x00,
  0x02, 0x00, 0x00, 0x00, 0xca, 0xff, 0xff, 0xff, 0x10, 0x00, 0x00, 0x00,
  0x00, 0x00, 0x00, 0x08, 0x10, 0x00, 0x00, 0x00, 0x14, 0x00, 0x00, 0x00,
  0xba, 0xff, 0xff, 0xff, 0x00, 0x00, 0x00, 0x01, 0x01, 0x00, 0x00, 0x00,
  0x08, 0x00, 0x00, 0x00, 0x03, 0x00, 0x00, 0x00, 0x07, 0x00, 0x00, 0x00,
  0x05, 0x00, 0x00, 0x00, 0x03, 0x00, 0x00, 0x00, 0x00, 0x00, 0x0e, 0x00,
  0x16, 0x00, 0x00, 0x00, 0x10, 0x00, 0x0c, 0x00, 0x0b, 0x00, 0x04, 0x00,
  0x0e, 0x00, 0x00, 0x00, 0x18, 0x00, 0x00, 0x00, 0x00, 0x00, 0x00, 0x08,
  0x18, 0x00, 0x00, 0x00, 0x1c, 0x00, 0x00, 0x00, 0x00, 0x00, 0x06, 0x00,
  0x08, 0x00, 0x07, 0x00, 0x06, 0x00, 0x00, 0x00, 0x00, 0x00, 0x00, 0x01,
  0x01, 0x00, 0x00, 0x00, 0x07, 0x00, 0x00, 0x00, 0x03, 0x00, 0x00, 0x00,
  0x00, 0x00, 0x00, 0x00, 0x04, 0x00, 0x00, 0x00, 0x01, 0x00, 0x00, 0x00,
  0x01, 0x00, 0x00, 0x00, 0x09, 0x00, 0x00, 0x00, 0x01, 0x00, 0x00, 0x00,
  0x00, 0x00, 0x00, 0x00, 0x0a, 0x00, 0x00, 0x00, 0x5c, 0x03, 0x00, 0x00,
  0xf8, 0x02, 0x00, 0x00, 0x94, 0x02, 0x00, 0x00, 0x40, 0x02, 0x00, 0x00,
  0xfc, 0x01, 0x00, 0x00, 0xb4, 0x01, 0x00, 0x00, 0x6c, 0x01, 0x00, 0x00,
  0xe8, 0x00, 0x00, 0x00, 0x5c, 0x00, 0x00, 0x00, 0x04, 0x00, 0x00, 0x00,
  0xe0, 0xfc, 0xff, 0xff, 0x14, 0x00, 0x00, 0x00, 0x1c, 0x00, 0x00, 0x00,
  0x1c, 0x00, 0x00, 0x00, 0x0a, 0x00, 0x00, 0x00, 0x34, 0x00, 0x00, 0x00,
  0x02, 0x00, 0x00, 0x00, 0xff, 0xff, 0xff, 0xff, 0x01, 0x00, 0x00, 0x00,
  0xcc, 0xfc, 0xff, 0xff, 0x19, 0x00, 0x00, 0x00, 0x53, 0x74, 0x61, 0x74,
  0x65, 0x66, 0x75, 0x6c, 0x50, 0x61, 0x72, 0x74, 0x69, 0x74, 0x69, 0x6f,
  0x6e, 0x65, 0x64, 0x43, 0x61, 0x6c, 0x6c, 0x3a, 0x30, 0x00, 0x00, 0x00,
  0x02, 0x00, 0x00, 0x00, 0x01, 0x00, 0x00, 0x00, 0x01, 0x00, 0x00, 0x00,
  0x34, 0xfd, 0xff, 0xff, 0x14, 0x00, 0x00, 0x00, 0x1c, 0x00, 0x00, 0x00,
  0x1c, 0x00, 0x00, 0x00, 0x09, 0x00, 0x00, 0x00, 0x68, 0x00, 0x00, 0x00,
  0x02, 0x00, 0x00, 0x00, 0xff, 0xff, 0xff, 0xff, 0x10, 0x00, 0x00, 0x00,
  0x20, 0xfd, 0xff, 0xff, 0x4c, 0x00, 0x00, 0x00, 0x73, 0x65, 0x71, 0x75,
  0x65, 0x6e, 0x74, 0x69, 0x61, 0x6c, 0x2f, 0x64, 0x65, 0x6e, 0x73, 0x65,
  0x5f, 0x31, 0x2f, 0x4d, 0x61, 0x74, 0x4d, 0x75, 0x6c, 0x3b, 0x73, 0x65,
  0x71, 0x75, 0x65, 0x6e, 0x74, 0x69, 0x61, 0x6c, 0x2f, 0x64, 0x65, 0x6e,
  0x73, 0x65, 0x5f, 0x31, 0x2f, 0x52, 0x65, 0x6c, 0x75, 0x3b, 0x73, 0x65,
  0x71, 0x75, 0x65, 0x6e, 0x74, 0x69, 0x61, 0x6c, 0x2f, 0x64, 0x65, 0x6e,
  0x73, 0x65, 0x5f, 0x31, 0x2f, 0x42, 0x69, 0x61, 0x73, 0x41, 0x64, 0x64,
  0x00, 0x00, 0x00, 0x00, 0x02, 0x00, 0x00, 0x00, 0x01, 0x00, 0x00, 0x00,
  0x10, 0x00, 0x00, 0x00, 0xbc, 0xfd, 0xff, 0xff, 0x14, 0x00, 0x00, 0x00,
  0x1c, 0x00, 0x00, 0x00, 0x1c, 0x00, 0x00, 0x00, 0x08, 0x00, 0x00, 0x00,
  0x60, 0x00, 0x00, 0x00, 0x02, 0x00, 0x00, 0x00, 0xff, 0xff, 0xff, 0xff,
  0x10, 0x00, 0x00, 0x00, 0xa8, 0xfd, 0xff, 0xff, 0x46, 0x00, 0x00, 0x00,
  0x73, 0x65, 0x71, 0x75, 0x65, 0x6e, 0x74, 0x69, 0x61, 0x6c, 0x2f, 0x64,
  0x65, 0x6e, 0x73, 0x65, 0x2f, 0x4d, 0x61, 0x74, 0x4d, 0x75, 0x6c, 0x3b,
  0x73, 0x65, 0x71, 0x75, 0x65, 0x6e, 0x74, 0x69, 0x61, 0x6c, 0x2f, 0x64,
  0x65, 0x6e, 0x73, 0x65, 0x2f, 0x52, 0x65, 0x6c, 0x75, 0x3b, 0x73, 0x65,
  0x71, 0x75, 0x65, 0x6e, 0x74, 0x69, 0x61, 0x6c, 0x2f, 0x64, 0x65, 0x6e,
  0x73, 0x65, 0x2f, 0x42, 0x69, 0x61, 0x73, 0x41, 0x64, 0x64, 0x00, 0x00,
  0x02, 0x00, 0x00, 0x00, 0x01, 0x00, 0x00, 0x00, 0x10, 0x00, 0x00, 0x00,
  0x96, 0xfe, 0xff, 0xff, 0x10, 0x00, 0x00, 0x00, 0x10, 0x00, 0x00, 0x00,
  0x07, 0x00, 0x00, 0x00, 0x28, 0x00, 0x00, 0x00, 0x18, 0xfe, 0xff, 0xff,
  0x19, 0x00, 0x00, 0x00, 0x73, 0x65, 0x71, 0x75, 0x65, 0x6e, 0x74, 0x69,
  0x61, 0x6c, 0x2f, 0x64, 0x65, 0x6e, 0x73, 0x65, 0x5f, 0x32, 0x2f, 0x4d,
  0x61, 0x74, 0x4d, 0x75, 0x6c, 0x00, 0x00, 0x00, 0x02, 0x00, 0x00, 0x00,
  0x01, 0x00, 0x00, 0x00, 0x10, 0x00, 0x00, 0x00, 0xda, 0xfe, 0xff, 0xff,
  0x10, 0x00, 0x00, 0x00, 0x10, 0x00, 0x00, 0x00, 0x06, 0x00, 0x00, 0x00,
  0x28, 0x00, 0x00, 0x00, 0x5c, 0xfe, 0xff, 0xff, 0x19, 0x00, 0x00, 0x00,
  0x73, 0x65, 0x71, 0x75, 0x65, 0x6e, 0x74, 0x69, 0x61, 0x6c, 0x2f, 0x64,
  0x65, 0x6e, 0x73, 0x65, 0x5f, 0x31, 0x2f, 0x4d, 0x61, 0x74, 0x4d, 0x75,
  0x6c, 0x00, 0x00, 0x00, 0x02, 0x00, 0x00, 0x00, 0x10, 0x00, 0x00, 0x00,
  0x10, 0x00, 0x00, 0x00, 0x1e, 0xff, 0xff, 0xff, 0x10, 0x00, 0x00, 0x00,
  0x10, 0x00, 0x00, 0x00, 0x05, 0x00, 0x00, 0x00, 0x24, 0x00, 0x00, 0x00,
  0xa0, 0xfe, 0xff, 0xff, 0x17, 0x00, 0x00, 0x00, 0x73, 0x65, 0x71, 0x75,
  0x65, 0x6e, 0x74, 0x69, 0x61, 0x6c, 0x2f, 0x64, 0x65, 0x6e, 0x73, 0x65,
  0x2f, 0x4d, 0x61, 0x74, 0x4d, 0x75, 0x6c, 0x00, 0x02, 0x00, 0x00, 0x00,
  0x10, 0x00, 0x00, 0x00, 0x01, 0x00, 0x00, 0x00, 0x5e, 0xff, 0xff, 0xff,
  0x10, 0x00, 0x00, 0x00, 0x10, 0x00, 0x00, 0x00, 0x04, 0x00, 0x00, 0x00,
  0x38, 0x00, 0x00, 0x00, 0xe0, 0xfe, 0xff, 0xff, 0x29, 0x00, 0x00, 0x00,
  0x73, 0x65, 0x71, 0x75, 0x65, 0x6e, 0x74, 0x69, 0x61, 0x6c, 0x2f, 0x64,
  0x65, 0x6e, 0x73, 0x65, 0x5f, 0x31, 0x2f, 0x42, 0x69, 0x61, 0x73, 0x41,
  0x64, 0x64, 0x2f, 0x52, 0x65, 0x61, 0x64, 0x56, 0x61, 0x72, 0x69, 0x61,
  0x62, 0x6c, 0x65, 0x4f, 0x70, 0x00, 0x00, 0x00, 0x01, 0x00, 0x00, 0x00,
  0x10, 0x00, 0x00, 0x00, 0xae, 0xff, 0xff, 0xff, 0x10, 0x00, 0x00, 0x00,
  0x10, 0x00, 0x00, 0x00, 0x03, 0x00, 0x00, 0x00, 0x38, 0x00, 0x00, 0x00,
  0x30, 0xff, 0xff, 0xff, 0x29, 0x00, 0x00, 0x00, 0x73, 0x65, 0x71, 0x75,
  0x65, 0x6e, 0x74, 0x69, 0x61, 0x6c, 0x2f, 0x64, 0x65, 0x6e, 0x73, 0x65,
  0x5f, 0x32, 0x2f, 0x42, 0x69, 0x61, 0x73, 0x41, 0x64, 0x64, 0x2f, 0x52,
  0x65, 0x61, 0x64, 0x56, 0x61, 0x72, 0x69, 0x61, 0x62, 0x6c, 0x65, 0x4f,
  0x70, 0x00, 0x00, 0x00, 0x01, 0x00, 0x00, 0x00, 0x01, 0x00, 0x00, 0x00,
  0x00, 0x00, 0x0e, 0x00, 0x14, 0x00, 0x10, 0x00, 0x00, 0x00, 0x0c, 0x00,
  0x08, 0x00, 0x04, 0x00, 0x0e, 0x00, 0x00, 0x00, 0x10, 0x00, 0x00, 0x00,
  0x10, 0x00, 0x00, 0x00, 0x02, 0x00, 0x00, 0x00, 0x34, 0x00, 0x00, 0x00,
  0x90, 0xff, 0xff, 0xff, 0x27, 0x00, 0x00, 0x00, 0x73, 0x65, 0x71, 0x75,
  0x65, 0x6e, 0x74, 0x69, 0x61, 0x6c, 0x2f, 0x64, 0x65, 0x6e, 0x73, 0x65,
  0x2f, 0x42, 0x69, 0x61, 0x73, 0x41, 0x64, 0x64, 0x2f, 0x52, 0x65, 0x61,
  0x64, 0x56, 0x61, 0x72, 0x69, 0x61, 0x62, 0x6c, 0x65, 0x4f, 0x70, 0x00,
  0x01, 0x00, 0x00, 0x00, 0x10, 0x00, 0x00, 0x00, 0x14, 0x00, 0x18, 0x00,
  0x14, 0x00, 0x00, 0x00, 0x10, 0x00, 0x0c, 0x00, 0x08, 0x00, 0x00, 0x00,
  0x00, 0x00, 0x04, 0x00, 0x14, 0x00, 0x00, 0x00, 0x14, 0x00, 0x00, 0x00,
  0x20, 0x00, 0x00, 0x00, 0x20, 0x00, 0x00, 0x00, 0x01, 0x00, 0x00, 0x00,
  0x3c, 0x00, 0x00, 0x00, 0x02, 0x00, 0x00, 0x00, 0xff, 0xff, 0xff, 0xff,
  0x01, 0x00, 0x00, 0x00, 0x04, 0x00, 0x04, 0x00, 0x04, 0x00, 0x00, 0x00,
  0x1d, 0x00, 0x00, 0x00, 0x73, 0x65, 0x72, 0x76, 0x69, 0x6e, 0x67, 0x5f,
  0x64, 0x65, 0x66, 0x61, 0x75, 0x6c, 0x74, 0x5f, 0x64, 0x65, 0x6e, 0x73,
  0x65, 0x5f, 0x69, 0x6e, 0x70, 0x75, 0x74, 0x3a, 0x30, 0x00, 0x00, 0x00,
  0x02, 0x00, 0x00, 0x00, 0x01, 0x00, 0x00, 0x00, 0x01, 0x00, 0x00, 0x00,
  0x01, 0x00, 0x00, 0x00, 0x10, 0x00, 0x00, 0x00, 0x0c, 0x00, 0x0c, 0x00,
  0x0b, 0x00, 0x00, 0x00, 0x00, 0x00, 0x04, 0x00, 0x0c, 0x00, 0x00, 0x00,
  0x09, 0x00, 0x00, 0x00, 0x00, 0x00, 0x00, 0x09
};

#endif //Z1_SINE_MODEL_H