#ifndef Z1_SINE_MODEL_H
#define Z1_SINE_MODEL_H


unsigned int z1_sine_model_len = 3116;
unsigned char z1_sine_model[] = {
 0x1c, 0x00, 0x00, 0x00, 0x54, 0x46, 0x4c, 0x33, 0x14, 0x00, 0x20, 0x00,
  0x1c, 0x00, 0x18, 0x00, 0x14, 0x00, 0x10, 0x00, 0x0c, 0x00, 0x00, 0x00,
  0x08, 0x00, 0x04, 0x00, 0x14, 0x00, 0x00, 0x00, 0x1c, 0x00, 0x00, 0x00,
  0x90, 0x00, 0x00, 0x00, 0xe8, 0x00, 0x00, 0x00, 0x04, 0x07, 0x00, 0x00,
  0x14, 0x07, 0x00, 0x00, 0xd8, 0x0b, 0x00, 0x00, 0x03, 0x00, 0x00, 0x00,
  0x01, 0x00, 0x00, 0x00, 0x10, 0x00, 0x00, 0x00, 0x00, 0x00, 0x0a, 0x00,
  0x10, 0x00, 0x0c, 0x00, 0x08, 0x00, 0x04, 0x00, 0x0a, 0x00, 0x00, 0x00,
  0x0c, 0x00, 0x00, 0x00, 0x1c, 0x00, 0x00, 0x00, 0x38, 0x00, 0x00, 0x00,
  0x0f, 0x00, 0x00, 0x00, 0x73, 0x65, 0x72, 0x76, 0x69, 0x6e, 0x67, 0x5f,
  0x64, 0x65, 0x66, 0x61, 0x75, 0x6c, 0x74, 0x00, 0x01, 0x00, 0x00, 0x00,
  0x04, 0x00, 0x00, 0x00, 0x98, 0xff, 0xff, 0xff, 0x09, 0x00, 0x00, 0x00,
  0x04, 0x00, 0x00, 0x00, 0x07, 0x00, 0x00, 0x00, 0x64, 0x65, 0x6e, 0x73,
  0x65, 0x5f, 0x32, 0x00, 0x01, 0x00, 0x00, 0x00, 0x04, 0x00, 0x00, 0x00,
  0xc6, 0xf9, 0xff, 0xff, 0x04, 0x00, 0x00, 0x00, 0x0b, 0x00, 0x00, 0x00,
  0x64, 0x65, 0x6e, 0x73, 0x65, 0x5f, 0x69, 0x6e, 0x70, 0x75, 0x74, 0x00,
  0x02, 0x00, 0x00, 0x00, 0x34, 0x00, 0x00, 0x00, 0x04, 0x00, 0x00, 0x00,
  0xdc, 0xff, 0xff, 0xff, 0x0c, 0x00, 0x00, 0x00, 0x04, 0x00, 0x00, 0x00,
  0x13, 0x00, 0x00, 0x00, 0x43, 0x4f, 0x4e, 0x56, 0x45, 0x52, 0x53, 0x49,
  0x4f, 0x4e, 0x5f, 0x4d, 0x45, 0x54, 0x41, 0x44, 0x41, 0x54, 0x41, 0x00,
  0x08, 0x00, 0x0c, 0x00, 0x08, 0x00, 0x04, 0x00, 0x08, 0x00, 0x00, 0x00,
  0x0b, 0x00, 0x00, 0x00, 0x04, 0x00, 0x00, 0x00, 0x13, 0x00, 0x00, 0x00,
  0x6d, 0x69, 0x6e, 0x5f, 0x72, 0x75, 0x6e, 0x74, 0x69, 0x6d, 0x65, 0x5f,
  0x76, 0x65, 0x72, 0x73, 0x69, 0x6f, 0x6e, 0x00, 0x0d, 0x00, 0x00, 0x00,
  0x18, 0x06, 0x00, 0x00, 0x10, 0x06, 0x00, 0x00, 0xc0, 0x05, 0x00, 0x00,
  0xa4, 0x05, 0x00, 0x00, 0x54, 0x05, 0x00, 0x00, 0x04, 0x05, 0x00, 0x00,
  0xf4, 0x00, 0x00, 0x00, 0xa4, 0x00, 0x00, 0x00, 0x9c, 0x00, 0x00, 0x00,
  0x94, 0x00, 0x00, 0x00, 0x8c, 0x00, 0x00, 0x00, 0x6c, 0x00, 0x00, 0x00,
  0x04, 0x00, 0x00, 0x00, 0x72, 0xfa, 0xff, 0xff, 0x04, 0x00, 0x00, 0x00,
  0x58, 0x00, 0x00, 0x00, 0x0c, 0x00, 0x00, 0x00, 0x08, 0x00, 0x0e, 0x00,
  0x08, 0x00, 0x04, 0x00, 0x08, 0x00, 0x00, 0x00, 0x10, 0x00, 0x00, 0x00,
  0x28, 0x00, 0x00, 0x00, 0x00, 0x00, 0x06, 0x00, 0x08, 0x00, 0x04, 0x00,
  0x06, 0x00, 0x00, 0x00, 0x04, 0x00, 0x00, 0x00, 0x01, 0x00, 0x00, 0x00,
  0xea, 0x03, 0x00, 0x00, 0x00, 0x00, 0x0a, 0x00, 0x10, 0x00, 0x0c, 0x00,
  0x08, 0x00, 0x04, 0x00, 0x0a, 0x00, 0x00, 0x00, 0x02, 0x00, 0x00, 0x00,
  0x02, 0x00, 0x00, 0x00, 0x04, 0x00, 0x00, 0x00, 0x05, 0x00, 0x00, 0x00,
  0x32, 0x2e, 0x39, 0x2e, 0x31, 0x00, 0x00, 0x00, 0xd6, 0xfa, 0xff, 0xff,
  0x04, 0x00, 0x00, 0x00, 0x10, 0x00, 0x00, 0x00, 0x31, 0x2e, 0x35, 0x2e,
  0x30, 0x00, 0x00, 0x00, 0x00, 0x00, 0x00, 0x00, 0x00, 0x00, 0x00, 0x00,
  0xf4, 0xf5, 0xff, 0xff, 0xf8, 0xf5, 0xff, 0xff, 0xfc, 0xf5, 0xff, 0xff,
  0xfe, 0xfa, 0xff, 0xff, 0x04, 0x00, 0x00, 0x00, 0x40, 0x00, 0x00, 0x00,
  0xda, 0xf8, 0xcf, 0x3e, 0xd0, 0x48, 0x8c, 0x3e, 0x1d, 0x1b, 0x9b, 0x3e,
  0xd4, 0x63, 0x5e, 0x3c, 0x92, 0x25, 0x15, 0x3e, 0x80, 0xd3, 0xd1, 0x3f,
  0x50, 0x24, 0x3f, 0x3f, 0x5c, 0xd3, 0x68, 0xbf, 0x1e, 0x71, 0xd6, 0xbe,
  0x52, 0x5d, 0xb6, 0x3f, 0x80, 0xaf, 0xa8, 0x3e, 0xfa, 0xe0, 0x8d, 0xbf,
  0x90, 0x13, 0xec, 0xbe, 0xaa, 0x76, 0x96, 0xbe, 0x45, 0x32, 0xc4, 0xbe,
  0xe4, 0xe9, 0xc3, 0x3d, 0x4a, 0xfb, 0xff, 0xff, 0x04, 0x00, 0x00, 0x00,
  0x00, 0x04, 0x00, 0x00, 0x32, 0x57, 0xb4, 0x3e, 0x39, 0x02, 0xc3, 0xbe,
  0x1d, 0xca, 0xd8, 0xbe, 0xb3, 0xec, 0x94, 0xbe, 0xc0, 0x59, 0x7f, 0x3d,
  0x96, 0xc4, 0x0d, 0x3e, 0x2e, 0xf4, 0xb3, 0xbe, 0xc7, 0x5a, 0x17, 0x3e,
  0x28, 0x8c, 0x2b, 0xbd, 0xa7, 0x64, 0xa3, 0xbe, 0xaa, 0xbc, 0x0e, 0x3e,
  0x1a, 0xbe, 0x4c, 0x3e, 0xdd, 0x4d, 0x96, 0x3e, 0x40, 0xd9, 0xd8, 0xbe,
  0x17, 0xbc, 0xbf, 0x3e, 0xbe, 0x2d, 0xa5, 0xbe, 0x10, 0xae, 0xab, 0x3e,
  0x60, 0x89, 0x50, 0x3d, 0x4d, 0x70, 0x98, 0xbd, 0x40, 0x29, 0xba, 0x3e,
  0x5c, 0x59, 0x37, 0x3e, 0x0e, 0xc9, 0x67, 0x3e, 0x6f, 0xae, 0x9d, 0x3e,
  0x72, 0x37, 0xc4, 0x3e, 0x58, 0x58, 0xa2, 0xbd, 0xf3, 0x55, 0xc2, 0x3d,
  0xa4, 0x52, 0xe4, 0x3d, 0x0e, 0xa7, 0x29, 0x3f, 0x2e, 0x99, 0x33, 0xbe,
  0x05, 0xfb, 0x32, 0xbe, 0x4a, 0x8f, 0x24, 0x3e, 0x31, 0xe3, 0x9c, 0x3e,
  0x31, 0x18, 0xca, 0xbe, 0x24, 0x23, 0xa8, 0xbd, 0x53, 0x9c, 0x8c, 0x3e,
  0x0f, 0x46, 0xce, 0x3d, 0x4b, 0x7f, 0x40, 0xbe, 0xda, 0x3f, 0x55, 0x3e,
  0x35, 0x5b, 0xbb, 0x3e, 0xc2, 0x79, 0x53, 0x3e, 0x61, 0x89, 0x88, 0x3e,
  0xa7, 0x16, 0x9d, 0x3e, 0xd8, 0x91, 0x26, 0xbe, 0x13, 0x30, 0xb6, 0x3e,
  0x9e, 0xb9, 0x03, 0x3e, 0x26, 0x03, 0xd4, 0x3c, 0x1f, 0xf7, 0x86, 0x3e,
  0x2d, 0x93, 0x17, 0xbd, 0xaf, 0xfd, 0x44, 0xbe, 0x4b, 0xc9, 0xce, 0x3e,
  0x74, 0xb3, 0x27, 0x3e, 0xa3, 0x20, 0xba, 0x3d, 0x9e, 0x07, 0xfc, 0xbd,
  0x52, 0x2a, 0x44, 0x3e, 0x0b, 0x8f, 0x81, 0x3e, 0x44, 0x18, 0x1a, 0x3e,
  0xd0, 0x97, 0x11, 0xbe, 0x8c, 0x90, 0xe2, 0x3e, 0x4f, 0xe9, 0x83, 0x3e,
  0xac, 0x51, 0xae, 0xbd, 0x00, 0x86, 0x3b, 0xbc, 0x3f, 0x4a, 0xfd, 0x3b,
  0x4c, 0x1b, 0xa6, 0x3d, 0xd6, 0x08, 0xad, 0xbc, 0x0e, 0x91, 0x1f, 0xbe,
  0x16, 0x31, 0x98, 0xbe, 0x66, 0xa9, 0x0c, 0xbe, 0x56, 0xf2, 0x48, 0x3e,
  0xef, 0x96, 0x06, 0x3f, 0x08, 0x2e, 0x8e, 0xbe, 0xcd, 0xd7, 0x9e, 0x3e,
  0x7d, 0x66, 0x4b, 0x3e, 0xb2, 0x13, 0x09, 0x3e, 0x13, 0x20, 0x1a, 0x3e,
  0x61, 0xfa, 0xda, 0x3e, 0x5b, 0x63, 0x1c, 0x3e, 0xf0, 0x83, 0x89, 0xbc,
  0x46, 0x09, 0xa9, 0x3e, 0xd1, 0xcc, 0xd2, 0x3e, 0x5b, 0xb9, 0xa9, 0x3e,
  0x36, 0x71, 0xab, 0x3b, 0x7a, 0xaa, 0x4a, 0x3e, 0x04, 0x31, 0xc5, 0x3e,
  0x90, 0xac, 0xf9, 0x3d, 0x5f, 0x17, 0x8a, 0xbf, 0xe9, 0x45, 0xdd, 0xbe,
  0xe6, 0x53, 0xbb, 0xbe, 0x12, 0x94, 0xd3, 0x3e, 0x9c, 0xdf, 0x14, 0xbe,
  0xa1, 0xe0, 0x46, 0xbf, 0x20, 0xe0, 0x3f, 0x3c, 0xe3, 0xfd, 0x95, 0xbf,
  0x10, 0xc4, 0x99, 0xbe, 0x80, 0xe8, 0x79, 0xbe, 0x10, 0x7f, 0xce, 0xbd,
  0x65, 0x4a, 0xed, 0xbe, 0xf2, 0x5a, 0xa4, 0xbc, 0xe0, 0xd1, 0xd4, 0xbe,
  0x0d, 0x44, 0xd6, 0xbe, 0xbd, 0xab, 0x1b, 0x3e, 0x1e, 0x61, 0x48, 0xbc,
  0xd9, 0x3f, 0xbe, 0x3e, 0xb0, 0x60, 0x97, 0xbe, 0xfd, 0x08, 0x09, 0xbd,
  0x3d, 0xcd, 0x87, 0x3e, 0x63, 0x2e, 0x5d, 0x3e, 0xa6, 0x2a, 0x36, 0x3e,
  0x3f, 0x3a, 0x70, 0xbd, 0x9d, 0xc3, 0xa6, 0x3e, 0x41, 0x6b, 0xa2, 0x3e,
  0x62, 0x04, 0x20, 0x3e, 0xe8, 0xa9, 0xa6, 0x3e, 0x9b, 0xed, 0xbc, 0x3e,
  0x8a, 0x21, 0x8d, 0xbe, 0x08, 0x69, 0x46, 0x3d, 0xdb, 0x9b, 0x87, 0x3e,
  0x50, 0xac, 0x99, 0xbc, 0x32, 0x81, 0x81, 0xbe, 0xda, 0x9d, 0x7f, 0x3e,
  0x81, 0x8d, 0xd6, 0xbe, 0x28, 0x3c, 0xa7, 0xbe, 0x42, 0x11, 0x07, 0xbf,
  0xd2, 0xc2, 0x3b, 0x3e, 0x29, 0xb4, 0x9b, 0xbe, 0x0e, 0xd6, 0x48, 0x3e,
  0xba, 0xa4, 0xff, 0xbe, 0x25, 0x0e, 0x55, 0xbe, 0xfc, 0x9b, 0xa9, 0xbe,
  0xb2, 0xfe, 0x52, 0x3e, 0xd8, 0x7a, 0x48, 0xbd, 0x72, 0x48, 0xbd, 0x3e,
  0x81, 0x7c, 0x34, 0xbe, 0x28, 0xb4, 0x9b, 0x3d, 0x17, 0x10, 0xda, 0xbe,
  0x28, 0x65, 0x75, 0xbd, 0xda, 0xf9, 0x4e, 0xbd, 0x46, 0xc7, 0x3c, 0xbe,
  0x26, 0x3c, 0xe8, 0x3c, 0x9c, 0xfd, 0x89, 0xbd, 0x02, 0x33, 0x06, 0xbf,
  0x3a, 0xea, 0x75, 0xbe, 0x0a, 0x8c, 0x9b, 0x3e, 0x37, 0x6c, 0x79, 0xbe,
  0x89, 0x1c, 0x94, 0x3e, 0xd9, 0xb8, 0x98, 0x3e, 0x33, 0x55, 0xc8, 0x3e,
  0xc3, 0xe0, 0xfc, 0xbe, 0x6d, 0xe6, 0x22, 0x3d, 0x11, 0xc2, 0x0f, 0x3f,
  0xae, 0x66, 0xb6, 0xbe, 0xb2, 0xa3, 0x41, 0x3e, 0x34, 0x1c, 0x51, 0x3d,
  0x5f, 0xbb, 0xa5, 0x3e, 0xa9, 0x8c, 0x2b, 0x3f, 0x03, 0xe9, 0xbd, 0x3e,
  0xcc, 0xa2, 0xa9, 0x3e, 0x5f, 0xd4, 0xc3, 0xbe, 0x94, 0x38, 0x4a, 0x3e,
  0xb6, 0x75, 0x9e, 0xbe, 0xd1, 0xc4, 0x92, 0xbe, 0x58, 0xc9, 0x93, 0xbd,
  0xf7, 0xe9, 0x82, 0x3e, 0x5e, 0xb7, 0x8e, 0xbe, 0x90, 0x0b, 0x0a, 0xbd,
  0xff, 0x9a, 0xd3, 0xbe, 0x70, 0xd4, 0xa7, 0xbe, 0x9f, 0x07, 0xd8, 0x3e,
  0x9c, 0x8b, 0xe5, 0xbd, 0x8d, 0x76, 0xca, 0xbe, 0x05, 0xf4, 0x8f, 0xbe,
  0xf9, 0x34, 0xc4, 0x3e, 0x5a, 0xd1, 0x48, 0xbe, 0x9a, 0x87, 0x52, 0xbe,
  0x00, 0x83, 0xf4, 0xbc, 0x2c, 0xdf, 0x9f, 0xbd, 0x6a, 0xbc, 0x30, 0xbe,
  0xc8, 0x22, 0x90, 0xbd, 0xe3, 0x8c, 0x98, 0x3e, 0x61, 0x1f, 0x14, 0xbf,
  0xac, 0xd9, 0xe4, 0x3e, 0x3a, 0x42, 0x7e, 0xbe, 0x20, 0x24, 0xe1, 0xbc,
  0x57, 0xaf, 0xdc, 0x3e, 0x01, 0x39, 0x5f, 0xbe, 0x3b, 0x5c, 0x7b, 0xbe,
  0x67, 0x74, 0x03, 0xbf, 0x20, 0x59, 0xd3, 0xbe, 0x09, 0x19, 0xa2, 0xbd,
  0x75, 0x30, 0xd7, 0xbe, 0x2a, 0x89, 0x34, 0xbf, 0x3f, 0x09, 0xd3, 0x3e,
  0x68, 0x95, 0x96, 0x3d, 0x47, 0x41, 0x68, 0xbe, 0xc1, 0x6a, 0x8a, 0x3e,
  0x4d, 0x4a, 0x9d, 0x3e, 0xc5, 0xed, 0x62, 0xbe, 0x85, 0xe7, 0x31, 0x3e,
  0x4c, 0x45, 0xe7, 0x3d, 0x08, 0x05, 0x47, 0xbe, 0xa4, 0x2a, 0xa1, 0x3e,
  0x5f, 0x3d, 0x94, 0x3e, 0x0b, 0xec, 0x8f, 0xbd, 0x4c, 0x63, 0x8c, 0xbd,
  0xa5, 0xe0, 0xce, 0x3c, 0xf4, 0x23, 0xb8, 0xbe, 0xc0, 0x8b, 0x82, 0x3e,
  0xfb, 0x7d, 0xd4, 0x3e, 0xd2, 0x28, 0x00, 0x3e, 0xc9, 0xae, 0x57, 0x3e,
  0x40, 0xc4, 0xb2, 0xbd, 0xbc, 0xe1, 0xef, 0x3e, 0xe0, 0x31, 0x1c, 0x3e,
  0x43, 0x24, 0x1a, 0xbe, 0x28, 0x79, 0xa7, 0xbe, 0x10, 0xe5, 0xc4, 0x3c,
  0x88, 0x28, 0x90, 0xbe, 0xd4, 0x49, 0x0c, 0xbe, 0xe1, 0xfa, 0x1e, 0x3e,
  0x96, 0x84, 0x30, 0x3e, 0x25, 0x99, 0x6b, 0x3d, 0xc8, 0x3e, 0x21, 0x3d,
  0xf5, 0xfc, 0x1d, 0xbe, 0x50, 0x46, 0x70, 0xbd, 0x7b, 0xd6, 0x68, 0x3d,
  0xbc, 0x1d, 0x6e, 0x3e, 0xac, 0x07, 0xa3, 0xbe, 0xfb, 0x7d, 0x98, 0x3e,
  0xfb, 0xf9, 0x0b, 0xbe, 0xae, 0x77, 0xcc, 0xbe, 0x08, 0x0d, 0x2f, 0xbd,
  0xb8, 0x82, 0xb3, 0xbe, 0x67, 0xb0, 0x3e, 0xbe, 0x79, 0x25, 0xc3, 0xbe,
  0x6d, 0x69, 0x73, 0x3d, 0xf2, 0x5f, 0xd3, 0xbe, 0x14, 0xba, 0xec, 0xbe,
  0xfd, 0x2f, 0x85, 0x3e, 0x12, 0x35, 0x68, 0x3e, 0xca, 0x16, 0x2a, 0x3e,
  0x76, 0x8f, 0xf0, 0x3d, 0xbe, 0x30, 0x7a, 0x3c, 0xa2, 0x59, 0x1f, 0x3e,
  0xd5, 0x95, 0x14, 0x3e, 0x2c, 0x15, 0xf2, 0xbd, 0x15, 0x80, 0x95, 0x3e,
  0x1f, 0x40, 0x8e, 0x3e, 0x3e, 0x1c, 0x10, 0x3e, 0xdc, 0xec, 0xe0, 0xbe,
  0xac, 0x36, 0x80, 0xbe, 0x19, 0xca, 0xb6, 0xbe, 0x41, 0x4d, 0xc8, 0xbe,
  0x49, 0x77, 0x62, 0xbe, 0xe5, 0x94, 0xae, 0x3e, 0xdc, 0x08, 0x0e, 0xbe,
  0xe9, 0x81, 0x46, 0xbe, 0x49, 0xeb, 0xb2, 0x3e, 0x56, 0xff, 0xff, 0xff,
  0x04, 0x00, 0x00, 0x00, 0x40, 0x00, 0x00, 0x00, 0x01, 0x5b, 0x2e, 0x3e,
  0x6a, 0x36, 0x6e, 0xbe, 0x62, 0x69, 0xad, 0x3e, 0xb1, 0x56, 0x23, 0x3e,
  0x36, 0x44, 0x30, 0x3e, 0xfa, 0xd5, 0x00, 0xbf, 0x0a, 0x7c, 0x87, 0xbe,
  0x92, 0x6d, 0x0f, 0x3f, 0xbf, 0x4b, 0x0b, 0xbf, 0x21, 0xd8, 0xb9, 0x3e,
  0x1a, 0xaa, 0x50, 0xbe, 0x3b, 0xfa, 0x6d, 0x3e, 0x6d, 0xd5, 0xfd, 0xbe,
  0xee, 0xf4, 0xde, 0x3e, 0x40, 0xfb, 0x82, 0xbc, 0xc7, 0xb1, 0xbd, 0x3e,
  0xa2, 0xff, 0xff, 0xff, 0x04, 0x00, 0x00, 0x00, 0x40, 0x00, 0x00, 0x00,
  0x64, 0x55, 0x82, 0xbd, 0x41, 0xcb, 0x2f, 0xbe, 0xb6, 0x71, 0x3f, 0xbe,
  0x68, 0x9d, 0x7f, 0xbe, 0xf9, 0x1a, 0x2b, 0xbe, 0x01, 0x6e, 0xee, 0x3e,
  0x29, 0x56, 0xbb, 0xbe, 0x80, 0x81, 0xd8, 0x3e, 0x04, 0x56, 0x3b, 0x3d,
  0xbe, 0x99, 0xfa, 0xbe, 0x00, 0x00, 0x00, 0x00, 0x3e, 0xe7, 0x0e, 0x3f,
  0x0c, 0xda, 0x15, 0x3d, 0x2a, 0x34, 0xe8, 0x3d, 0xe7, 0x19, 0x85, 0x3d,
  0x2f, 0x78, 0x01, 0xbd, 0xee, 0xff, 0xff, 0xff, 0x04, 0x00, 0x00, 0x00,
  0x04, 0x00, 0x00, 0x00, 0x97, 0x81, 0x47, 0xbe, 0x00, 0x00, 0x06, 0x00,
  0x08, 0x00, 0x04, 0x00, 0x06, 0x00, 0x00, 0x00, 0x04, 0x00, 0x00, 0x00,
  0x40, 0x00, 0x00, 0x00, 0x91, 0x69, 0x18, 0x3d, 0x00, 0x00, 0x00, 0x00,
  0xf6, 0x94, 0x1a, 0x3f, 0x91, 0xf3, 0x58, 0x3d, 0x39, 0x19, 0xaf, 0xbe,
  0x00, 0x00, 0x00, 0x00, 0x00, 0x00, 0x00, 0x00, 0xba, 0x42, 0xf8, 0x3d,
  0x00, 0x00, 0x00, 0x00, 0x1a, 0xaf, 0x29, 0xbf, 0x00, 0x00, 0x00, 0x00,
  0xfb, 0x19, 0x23, 0xbf, 0x00, 0x00, 0x00, 0x00, 0xe7, 0xb2, 0x65, 0xbe,
  0x00, 0x00, 0x00, 0x00, 0x6a, 0xb9, 0xb5, 0xbe, 0x54, 0xfb, 0xff, 0xff,
  0x58, 0xfb, 0xff, 0xff, 0x0f, 0x00, 0x00, 0x00, 0x4d, 0x4c, 0x49, 0x52,
  0x20, 0x43, 0x6f, 0x6e, 0x76, 0x65, 0x72, 0x74, 0x65, 0x64, 0x2e, 0x00,
  0x01, 0x00, 0x00, 0x00, 0x14, 0x00, 0x00, 0x00, 0x00, 0x00, 0x0e, 0x00,
  0x18, 0x00, 0x14, 0x00, 0x10, 0x00, 0x0c, 0x00, 0x08, 0x00, 0x04, 0x00,
  0x0e, 0x00, 0x00, 0x00, 0x14, 0x00, 0x00, 0x00, 0x1c, 0x00, 0x00, 0x00,
  0xd8, 0x00, 0x00, 0x00, 0xdc, 0x00, 0x00, 0x00, 0xe0, 0x00, 0x00, 0x00,
  0x04, 0x00, 0x00, 0x00, 0x6d, 0x61, 0x69, 0x6e, 0x00, 0x00, 0x00, 0x00,
  0x03, 0x00, 0x00, 0x00, 0x80, 0x00, 0x00, 0x00, 0x38, 0x00, 0x00, 0x00,
  0x04, 0x00, 0x00, 0x00, 0x9a, 0xff, 0xff, 0xff, 0x10, 0x00, 0x00, 0x00,
  0x00, 0x00, 0x00, 0x08, 0x0c, 0x00, 0x00, 0x00, 0x10, 0x00, 0x00, 0x00,
  0xd0, 0xfb, 0xff, 0xff, 0x01, 0x00, 0x00, 0x00, 0x09, 0x00, 0x00, 0x00,
  0x03, 0x00, 0x00, 0x00, 0x08, 0x00, 0x00, 0x00, 0x06, 0x00, 0x00, 0x00,
  0x02, 0x00, 0x00, 0x00, 0xca, 0xff, 0xff, 0xff, 0x10, 0x00, 0x00, 0x00,
  0x00, 0x00, 0x00, 0x08, 0x10, 0x00, 0x00, 0x00, 0x14, 0x00, 0x00, 0x00,
  0xba, 0xff, 0xff, 0xff, 0x00, 0x00, 0x00, 0x01, 0x01, 0x00, 0x00, 0x00,
  0x08, 0x00, 0x00, 0x00, 0x03, 0x00, 0x00, 0x00, 0x07, 0x00, 0x00, 0x00,
  0x05, 0x00, 0x00, 0x00, 0x03, 0x00, 0x00, 0x00, 0x00, 0x00, 0x0e, 0x00,
  0x16, 0x00, 0x00, 0x00, 0x10, 0x00, 0x0c, 0x00, 0x0b, 0x00, 0x04, 0x00,
  0x0e, 0x00, 0x00, 0x00, 0x18, 0x00, 0x00, 0x00, 0x00, 0x00, 0x00, 0x08,
  0x18, 0x00, 0x00, 0x00, 0x1c, 0x00, 0x00, 0x00, 0x00, 0x00, 0x06, 0x00,
  0x08, 0x00, 0x07, 0x00, 0x06, 0x00, 0x00, 0x00, 0x00, 0x00, 0x00, 0x01,
  0x01, 0x00, 0x00, 0x00, 0x07, 0x00, 0x00, 0x00, 0x03, 0x00, 0x00, 0x00,
  0x00, 0x00, 0x00, 0x00, 0x04, 0x00, 0x00, 0x00, 0x01, 0x00, 0x00, 0x00,
  0x01, 0x00, 0x00, 0x00, 0x09, 0x00, 0x00, 0x00, 0x01, 0x00, 0x00, 0x00,
  0x00, 0x00, 0x00, 0x00, 0x0a, 0x00, 0x00, 0x00, 0x5c, 0x03, 0x00, 0x00,
  0xf8, 0x02, 0x00, 0x00, 0x94, 0x02, 0x00, 0x00, 0x40, 0x02, 0x00, 0x00,
  0xfc, 0x01, 0x00, 0x00, 0xb4, 0x01, 0x00, 0x00, 0x6c, 0x01, 0x00, 0x00,
  0xe8, 0x00, 0x00, 0x00, 0x5c, 0x00, 0x00, 0x00, 0x04, 0x00, 0x00, 0x00,
  0xe0, 0xfc, 0xff, 0xff, 0x14, 0x00, 0x00, 0x00, 0x1c, 0x00, 0x00, 0x00,
  0x1c, 0x00, 0x00, 0x00, 0x0a, 0x00, 0x00, 0x00, 0x34, 0x00, 0x00, 0x00,
  0x02, 0x00, 0x00, 0x00, 0xff, 0xff, 0xff, 0xff, 0x01, 0x00, 0x00, 0x00,
  0xcc, 0xfc, 0xff, 0xff, 0x19, 0x00, 0x00, 0x00, 0x53, 0x74, 0x61, 0x74,
  0x65, 0x66, 0x75, 0x6c, 0x50, 0x61, 0x72, 0x74, 0x69, 0x74, 0x69, 0x6f,
  0x6e, 0x65, 0x64, 0x43, 0x61, 0x6c, 0x6c, 0x3a, 0x30, 0x00, 0x00, 0x00,
  0x02, 0x00, 0x00, 0x00, 0x01, 0x00, 0x00, 0x00, 0x01, 0x00, 0x00, 0x00,
  0x34, 0xfd, 0xff, 0xff, 0x14, 0x00, 0x00, 0x00, 0x1c, 0x00, 0x00, 0x00,
  0x1c, 0x00, 0x00, 0x00, 0x09, 0x00, 0x00, 0x00, 0x68, 0x00, 0x00, 0x00,
  0x02, 0x00, 0x00, 0x00, 0xff, 0xff, 0xff, 0xff, 0x10, 0x00, 0x00, 0x00,
  0x20, 0xfd, 0xff, 0xff, 0x4c, 0x00, 0x00, 0x00, 0x73, 0x65, 0x71, 0x75,
  0x65, 0x6e, 0x74, 0x69, 0x61, 0x6c, 0x2f, 0x64, 0x65, 0x6e, 0x73, 0x65,
  0x5f, 0x31, 0x2f, 0x4d, 0x61, 0x74, 0x4d, 0x75, 0x6c, 0x3b, 0x73, 0x65,
  0x71, 0x75, 0x65, 0x6e, 0x74, 0x69, 0x61, 0x6c, 0x2f, 0x64, 0x65, 0x6e,
  0x73, 0x65, 0x5f, 0x31, 0x2f, 0x52, 0x65, 0x6c, 0x75, 0x3b, 0x73, 0x65,
  0x71, 0x75, 0x65, 0x6e, 0x74, 0x69, 0x61, 0x6c, 0x2f, 0x64, 0x65, 0x6e,
  0x73, 0x65, 0x5f, 0x31, 0x2f, 0x42, 0x69, 0x61, 0x73, 0x41, 0x64, 0x64,
  0x00, 0x00, 0x00, 0x00, 0x02, 0x00, 0x00, 0x00, 0x01, 0x00, 0x00, 0x00,
  0x10, 0x00, 0x00, 0x00, 0xbc, 0xfd, 0xff, 0xff, 0x14, 0x00, 0x00, 0x00,
  0x1c, 0x00, 0x00, 0x00, 0x1c, 0x00, 0x00, 0x00, 0x08, 0x00, 0x00, 0x00,
  0x60, 0x00, 0x00, 0x00, 0x02, 0x00, 0x00, 0x00, 0xff, 0xff, 0xff, 0xff,
  0x10, 0x00, 0x00, 0x00, 0xa8, 0xfd, 0xff, 0xff, 0x46, 0x00, 0x00, 0x00,
  0x73, 0x65, 0x71, 0x75, 0x65, 0x6e, 0x74, 0x69, 0x61, 0x6c, 0x2f, 0x64,
  0x65, 0x6e, 0x73, 0x65, 0x2f, 0x4d, 0x61, 0x74, 0x4d, 0x75, 0x6c, 0x3b,
  0x73, 0x65, 0x71, 0x75, 0x65, 0x6e, 0x74, 0x69, 0x61, 0x6c, 0x2f, 0x64,
  0x65, 0x6e, 0x73, 0x65, 0x2f, 0x52, 0x65, 0x6c, 0x75, 0x3b, 0x73, 0x65,
  0x71, 0x75, 0x65, 0x6e, 0x74, 0x69, 0x61, 0x6c, 0x2f, 0x64, 0x65, 0x6e,
  0x73, 0x65, 0x2f, 0x42, 0x69, 0x61, 0x73, 0x41, 0x64, 0x64, 0x00, 0x00,
  0x02, 0x00, 0x00, 0x00, 0x01, 0x00, 0x00, 0x00, 0x10, 0x00, 0x00, 0x00,
  0x96, 0xfe, 0xff, 0xff, 0x10, 0x00, 0x00, 0x00, 0x10, 0x00, 0x00, 0x00,
  0x07, 0x00, 0x00, 0x00, 0x28, 0x00, 0x00, 0x00, 0x18, 0xfe, 0xff, 0xff,
  0x19, 0x00, 0x00, 0x00, 0x73, 0x65, 0x71, 0x75, 0x65, 0x6e, 0x74, 0x69,
  0x61, 0x6c, 0x2f, 0x64, 0x65, 0x6e, 0x73, 0x65, 0x5f, 0x32, 0x2f, 0x4d,
  0x61, 0x74, 0x4d, 0x75, 0x6c, 0x00, 0x00, 0x00, 0x02, 0x00, 0x00, 0x00,
  0x01, 0x00, 0x00, 0x00, 0x10, 0x00, 0x00, 0x00, 0xda, 0xfe, 0xff, 0xff,
  0x10, 0x00, 0x00, 0x00, 0x10, 0x00, 0x00, 0x00, 0x06, 0x00, 0x00, 0x00,
  0x28, 0x00, 0x00, 0x00, 0x5c, 0xfe, 0xff, 0xff, 0x19, 0x00, 0x00, 0x00,
  0x73, 0x65, 0x71, 0x75, 0x65, 0x6e, 0x74, 0x69, 0x61, 0x6c, 0x2f, 0x64,
  0x65, 0x6e, 0x73, 0x65, 0x5f, 0x31, 0x2f, 0x4d, 0x61, 0x74, 0x4d, 0x75,
  0x6c, 0x00, 0x00, 0x00, 0x02, 0x00, 0x00, 0x00, 0x10, 0x00, 0x00, 0x00,
  0x10, 0x00, 0x00, 0x00, 0x1e, 0xff, 0xff, 0xff, 0x10, 0x00, 0x00, 0x00,
  0x10, 0x00, 0x00, 0x00, 0x05, 0x00, 0x00, 0x00, 0x24, 0x00, 0x00, 0x00,
  0xa0, 0xfe, 0xff, 0xff, 0x17, 0x00, 0x00, 0x00, 0x73, 0x65, 0x71, 0x75,
  0x65, 0x6e, 0x74, 0x69, 0x61, 0x6c, 0x2f, 0x64, 0x65, 0x6e, 0x73, 0x65,
  0x2f, 0x4d, 0x61, 0x74, 0x4d, 0x75, 0x6c, 0x00, 0x02, 0x00, 0x00, 0x00,
  0x10, 0x00, 0x00, 0x00, 0x01, 0x00, 0x00, 0x00, 0x5e, 0xff, 0xff, 0xff,
  0x10, 0x00, 0x00, 0x00, 0x10, 0x00, 0x00, 0x00, 0x04, 0x00, 0x00, 0x00,
  0x38, 0x00, 0x00, 0x00, 0xe0, 0xfe, 0xff, 0xff, 0x29, 0x00, 0x00, 0x00,
  0x73, 0x65, 0x71, 0x75, 0x65, 0x6e, 0x74, 0x69, 0x61, 0x6c, 0x2f, 0x64,
  0x65, 0x6e, 0x73, 0x65, 0x5f, 0x31, 0x2f, 0x42, 0x69, 0x61, 0x73, 0x41,
  0x64, 0x64, 0x2f, 0x52, 0x65, 0x61, 0x64, 0x56, 0x61, 0x72, 0x69, 0x61,
  0x62, 0x6c, 0x65, 0x4f, 0x70, 0x00, 0x00, 0x00, 0x01, 0x00, 0x00, 0x00,
  0x10, 0x00, 0x00, 0x00, 0xae, 0xff, 0xff, 0xff, 0x10, 0x00, 0x00, 0x00,
  0x10, 0x00, 0x00, 0x00, 0x03, 0x00, 0x00, 0x00, 0x38, 0x00, 0x00, 0x00,
  0x30, 0xff, 0xff, 0xff, 0x29, 0x00, 0x00, 0x00, 0x73, 0x65, 0x71, 0x75,
  0x65, 0x6e, 0x74, 0x69, 0x61, 0x6c, 0x2f, 0x64, 0x65, 0x6e, 0x73, 0x65,
  0x5f, 0x32, 0x2f, 0x42, 0x69, 0x61, 0x73, 0x41, 0x64, 0x64, 0x2f, 0x52,
  0x65, 0x61, 0x64, 0x56, 0x61, 0x72, 0x69, 0x61, 0x62, 0x6c, 0x65, 0x4f,
  0x70, 0x00, 0x00, 0x00, 0x01, 0x00, 0x00, 0x00, 0x01, 0x00, 0x00, 0x00,
  0x00, 0x00, 0x0e, 0x00, 0x14, 0x00, 0x10, 0x00, 0x00, 0x00, 0x0c, 0x00,
  0x08, 0x00, 0x04, 0x00, 0x0e, 0x00, 0x00, 0x00, 0x10, 0x00, 0x00, 0x00,
  0x10, 0x00, 0x00, 0x00, 0x02, 0x00, 0x00, 0x00, 0x34, 0x00, 0x00, 0x00,
  0x90, 0xff, 0xff, 0xff, 0x27, 0x00, 0x00, 0x00, 0x73, 0x65, 0x71, 0x75,
  0x65, 0x6e, 0x74, 0x69, 0x61, 0x6c, 0x2f, 0x64, 0x65, 0x6e, 0x73, 0x65,
  0x2f, 0x42, 0x69, 0x61, 0x73, 0x41, 0x64, 0x64, 0x2f, 0x52, 0x65, 0x61,
  0x64, 0x56, 0x61, 0x72, 0x69, 0x61, 0x62, 0x6c, 0x65, 0x4f, 0x70, 0x00,
  0x01, 0x00, 0x00, 0x00, 0x10, 0x00, 0x00, 0x00, 0x14, 0x00, 0x18, 0x00,
  0x14, 0x00, 0x00, 0x00, 0x10, 0x00, 0x0c, 0x00, 0x08, 0x00, 0x00, 0x00,
  0x00, 0x00, 0x04, 0x00, 0x14, 0x00, 0x00, 0x00, 0x14, 0x00, 0x00, 0x00,
  0x20, 0x00, 0x00, 0x00, 0x20, 0x00, 0x00, 0x00, 0x01, 0x00, 0x00, 0x00,
  0x3c, 0x00, 0x00, 0x00, 0x02, 0x00, 0x00, 0x00, 0xff, 0xff, 0xff, 0xff,
  0x01, 0x00, 0x00, 0x00, 0x04, 0x00, 0x04, 0x00, 0x04, 0x00, 0x00, 0x00,
  0x1d, 0x00, 0x00, 0x00, 0x73, 0x65, 0x72, 0x76, 0x69, 0x6e, 0x67, 0x5f,
  0x64, 0x65, 0x66, 0x61, 0x75, 0x6c, 0x74, 0x5f, 0x64, 0x65, 0x6e, 0x73,
  0x65, 0x5f, 0x69, 0x6e, 0x70, 0x75, 0x74, 0x3a, 0x30, 0x00, 0x00, 0x00,
  0x02, 0x00, 0x00, 0x00, 0x01, 0x00, 0x00, 0x00, 0x01, 0x00, 0x00, 0x00,
  0x01, 0x00, 0x00, 0x00, 0x10, 0x00, 0x00, 0x00, 0x0c, 0x00, 0x0c, 0x00,
  0x0b, 0x00, 0x00, 0x00, 0x00, 0x00, 0x04, 0x00, 0x0c, 0x00, 0x00, 0x00,
  0x09, 0x00, 0x00, 0x00, 0x00, 0x00, 0x00, 0x09
};

#endif //Z1_SINE_MODEL_H