#ifndef Z2SINE_MODEL_H
#define Z2SINE_MODEL_H


unsigned int z2sine_model_len = 3116;
unsigned char z2sine_model[] = {
 0x1c, 0x00, 0x00, 0x00, 0x54, 0x46, 0x4c, 0x33, 0x14, 0x00, 0x20, 0x00,
  0x1c, 0x00, 0x18, 0x00, 0x14, 0x00, 0x10, 0x00, 0x0c, 0x00, 0x00, 0x00,
  0x08, 0x00, 0x04, 0x00, 0x14, 0x00, 0x00, 0x00, 0x1c, 0x00, 0x00, 0x00,
  0x90, 0x00, 0x00, 0x00, 0xe8, 0x00, 0x00, 0x00, 0x04, 0x07, 0x00, 0x00,
  0x14, 0x07, 0x00, 0x00, 0xd8, 0x0b, 0x00, 0x00, 0x03, 0x00, 0x00, 0x00,
  0x01, 0x00, 0x00, 0x00, 0x10, 0x00, 0x00, 0x00, 0x00, 0x00, 0x0a, 0x00,
  0x10, 0x00, 0x0c, 0x00, 0x08, 0x00, 0x04, 0x00, 0x0a, 0x00, 0x00, 0x00,
  0x0c, 0x00, 0x00, 0x00, 0x1c, 0x00, 0x00, 0x00, 0x38, 0x00, 0x00, 0x00,
  0x0f, 0x00, 0x00, 0x00, 0x73, 0x65, 0x72, 0x76, 0x69, 0x6e, 0x67, 0x5f,
  0x64, 0x65, 0x66, 0x61, 0x75, 0x6c, 0x74, 0x00, 0x01, 0x00, 0x00, 0x00,
  0x04, 0x00, 0x00, 0x00, 0x98, 0xff, 0xff, 0xff, 0x09, 0x00, 0x00, 0x00,
  0x04, 0x00, 0x00, 0x00, 0x07, 0x00, 0x00, 0x00, 0x64, 0x65, 0x6e, 0x73,
  0x65, 0x5f, 0x32, 0x00, 0x01, 0x00, 0x00, 0x00, 0x04, 0x00, 0x00, 0x00,
  0xc6, 0xf9, 0xff, 0xff, 0x04, 0x00, 0x00, 0x00, 0x0b, 0x00, 0x00, 0x00,
  0x64, 0x65, 0x6e, 0x73, 0x65, 0x5f, 0x69, 0x6e, 0x70, 0x75, 0x74, 0x00,
  0x02, 0x00, 0x00, 0x00, 0x34, 0x00, 0x00, 0x00, 0x04, 0x00, 0x00, 0x00,
  0xdc, 0xff, 0xff, 0xff, 0x0c, 0x00, 0x00, 0x00, 0x04, 0x00, 0x00, 0x00,
  0x13, 0x00, 0x00, 0x00, 0x43, 0x4f, 0x4e, 0x56, 0x45, 0x52, 0x53, 0x49,
  0x4f, 0x4e, 0x5f, 0x4d, 0x45, 0x54, 0x41, 0x44, 0x41, 0x54, 0x41, 0x00,
  0x08, 0x00, 0x0c, 0x00, 0x08, 0x00, 0x04, 0x00, 0x08, 0x00, 0x00, 0x00,
  0x0b, 0x00, 0x00, 0x00, 0x04, 0x00, 0x00, 0x00, 0x13, 0x00, 0x00, 0x00,
  0x6d, 0x69, 0x6e, 0x5f, 0x72, 0x75, 0x6e, 0x74, 0x69, 0x6d, 0x65, 0x5f,
  0x76, 0x65, 0x72, 0x73, 0x69, 0x6f, 0x6e, 0x00, 0x0d, 0x00, 0x00, 0x00,
  0x18, 0x06, 0x00, 0x00, 0x10, 0x06, 0x00, 0x00, 0xc0, 0x05, 0x00, 0x00,
  0xa4, 0x05, 0x00, 0x00, 0x54, 0x05, 0x00, 0x00, 0x04, 0x05, 0x00, 0x00,
  0xf4, 0x00, 0x00, 0x00, 0xa4, 0x00, 0x00, 0x00, 0x9c, 0x00, 0x00, 0x00,
  0x94, 0x00, 0x00, 0x00, 0x8c, 0x00, 0x00, 0x00, 0x6c, 0x00, 0x00, 0x00,
  0x04, 0x00, 0x00, 0x00, 0x72, 0xfa, 0xff, 0xff, 0x04, 0x00, 0x00, 0x00,
  0x58, 0x00, 0x00, 0x00, 0x0c, 0x00, 0x00, 0x00, 0x08, 0x00, 0x0e, 0x00,
  0x08, 0x00, 0x04, 0x00, 0x08, 0x00, 0x00, 0x00, 0x10, 0x00, 0x00, 0x00,
  0x28, 0x00, 0x00, 0x00, 0x00, 0x00, 0x06, 0x00, 0x08, 0x00, 0x04, 0x00,
  0x06, 0x00, 0x00, 0x00, 0x04, 0x00, 0x00, 0x00, 0x01, 0x00, 0x00, 0x00,
  0xea, 0x03, 0x00, 0x00, 0x00, 0x00, 0x0a, 0x00, 0x10, 0x00, 0x0c, 0x00,
  0x08, 0x00, 0x04, 0x00, 0x0a, 0x00, 0x00, 0x00, 0x02, 0x00, 0x00, 0x00,
  0x02, 0x00, 0x00, 0x00, 0x04, 0x00, 0x00, 0x00, 0x05, 0x00, 0x00, 0x00,
  0x32, 0x2e, 0x39, 0x2e, 0x31, 0x00, 0x00, 0x00, 0xd6, 0xfa, 0xff, 0xff,
  0x04, 0x00, 0x00, 0x00, 0x10, 0x00, 0x00, 0x00, 0x31, 0x2e, 0x35, 0x2e,
  0x30, 0x00, 0x00, 0x00, 0x00, 0x00, 0x00, 0x00, 0x00, 0x00, 0x00, 0x00,
  0xf4, 0xf5, 0xff, 0xff, 0xf8, 0xf5, 0xff, 0xff, 0xfc, 0xf5, 0xff, 0xff,
  0xfe, 0xfa, 0xff, 0xff, 0x04, 0x00, 0x00, 0x00, 0x40, 0x00, 0x00, 0x00,
  0x91, 0x1e, 0xd3, 0x3f, 0x81, 0x10, 0x50, 0xbe, 0x40, 0xcc, 0x7f, 0x3e,
  0x81, 0x9d, 0x97, 0xbd, 0x07, 0x2c, 0xfb, 0x3e, 0xda, 0x48, 0xea, 0xbc,
  0xec, 0x2f, 0xde, 0xbd, 0xbb, 0xab, 0x21, 0xbf, 0x0e, 0x19, 0x97, 0xbe,
  0x37, 0x5c, 0x69, 0xbf, 0xfc, 0x1f, 0x43, 0x3f, 0x90, 0x63, 0x42, 0x3e,
  0x72, 0xb6, 0x87, 0xbe, 0x30, 0x46, 0xdf, 0x3e, 0x44, 0x21, 0x14, 0xbf,
  0xb4, 0xf6, 0xa4, 0xbd, 0x4a, 0xfb, 0xff, 0xff, 0x04, 0x00, 0x00, 0x00,
  0x00, 0x04, 0x00, 0x00, 0x35, 0xe1, 0x3a, 0x3e, 0xfe, 0xb6, 0x56, 0x3e,
  0x82, 0x2c, 0xbd, 0x3e, 0xb3, 0x36, 0x8f, 0xbf, 0x84, 0x66, 0x96, 0xbd,
  0xf2, 0x1e, 0x9e, 0xbe, 0xa9, 0x8f, 0xbc, 0x3e, 0x83, 0x55, 0xdd, 0xbe,
  0x48, 0x41, 0x12, 0xbf, 0x84, 0x9a, 0x9a, 0xbf, 0xab, 0xea, 0xb3, 0x3d,
  0x82, 0x38, 0xc7, 0xbe, 0xd8, 0x7f, 0x86, 0xbe, 0x1c, 0xb9, 0xa1, 0x3d,
  0x23, 0x6a, 0x0f, 0xbf, 0xb8, 0x04, 0xcc, 0x3e, 0x67, 0xc6, 0xec, 0x3e,
  0xa7, 0x93, 0x57, 0x3e, 0xbf, 0x07, 0x6f, 0x3e, 0xa6, 0xa0, 0xc8, 0xbe,
  0x87, 0xae, 0xc4, 0x3e, 0x68, 0xce, 0xd1, 0xbe, 0x58, 0xed, 0xa0, 0xbe,
  0x29, 0x60, 0x80, 0x3e, 0xd5, 0x3e, 0x76, 0x3c, 0xa3, 0xf9, 0xe0, 0xbe,
  0x7e, 0x6d, 0xce, 0xbe, 0x42, 0x4e, 0xa9, 0xbe, 0x28, 0x6c, 0xb5, 0xbe,
  0x9f, 0x1e, 0xc4, 0x3e, 0x98, 0xef, 0xb0, 0xbd, 0xbe, 0xf8, 0xe6, 0x3e,
  0xd8, 0x63, 0x0f, 0x3d, 0xb5, 0x55, 0xb2, 0x3e, 0x93, 0x86, 0x26, 0x3e,
  0x55, 0xcd, 0xf0, 0x3e, 0xea, 0x6b, 0x73, 0x3e, 0xfd, 0xe0, 0xa2, 0x3e,
  0x00, 0xb5, 0xd7, 0xbe, 0xdc, 0x7d, 0xf4, 0x3d, 0xc0, 0xdf, 0xc4, 0x3c,
  0x33, 0x12, 0x0a, 0x3f, 0xb1, 0x28, 0x9b, 0xbd, 0x55, 0xa3, 0xc1, 0x3e,
  0xa2, 0x1f, 0x34, 0xbe, 0xe8, 0x9e, 0x84, 0xbd, 0xc4, 0x8b, 0xb4, 0xbe,
  0x02, 0x73, 0x2f, 0xbe, 0xdd, 0x90, 0xcf, 0x3e, 0x48, 0xb3, 0x88, 0x3d,
  0x9b, 0x89, 0x58, 0xbe, 0x1d, 0x13, 0x2f, 0x3e, 0x03, 0xd3, 0x54, 0xbe,
  0x44, 0x31, 0x28, 0xbe, 0x6c, 0xf3, 0xb1, 0xbd, 0x67, 0x87, 0x46, 0xbe,
  0x65, 0xac, 0x46, 0x3e, 0x98, 0xdd, 0xcc, 0xbe, 0x34, 0xdb, 0x91, 0x3e,
  0xa0, 0x4e, 0x60, 0x3c, 0xbe, 0x24, 0x34, 0xbe, 0x3b, 0xbd, 0x6a, 0xbe,
  0x90, 0xc2, 0x9f, 0x3e, 0x02, 0x3a, 0x29, 0x3d, 0xfd, 0x43, 0x16, 0xbe,
  0x6b, 0x0f, 0xf5, 0x3d, 0xc2, 0xb6, 0x0a, 0x3e, 0xaf, 0x46, 0x4c, 0x3e,
  0x00, 0xfa, 0x21, 0xba, 0x1a, 0x94, 0x1f, 0x3e, 0x19, 0x22, 0xc4, 0x3e,
  0xb3, 0xdd, 0xd6, 0x3e, 0x9f, 0x0f, 0xeb, 0x3e, 0xbc, 0x17, 0x38, 0x3f,
  0xb2, 0x0f, 0x3b, 0x3e, 0x48, 0x87, 0xe5, 0xbd, 0xf7, 0xd8, 0x8c, 0x3e,
  0x28, 0xea, 0x7e, 0xbd, 0x3f, 0x7a, 0x9f, 0xbe, 0xaf, 0x8e, 0x5a, 0xbe,
  0x4d, 0xb6, 0x61, 0x3e, 0x25, 0x04, 0x2a, 0x3e, 0xba, 0xd4, 0x04, 0x3e,
  0x55, 0x1d, 0x0d, 0xbe, 0x71, 0x7d, 0xbb, 0x3e, 0xbd, 0x43, 0x64, 0xbe,
  0xe9, 0xbe, 0xcb, 0xbe, 0x86, 0x47, 0x4e, 0xbe, 0xcc, 0x13, 0xad, 0x3c,
  0x8b, 0x2d, 0x01, 0xbe, 0xa4, 0x6a, 0x26, 0xbe, 0xbe, 0xf6, 0x56, 0x3e,
  0x09, 0x54, 0xa6, 0x3e, 0x07, 0xa7, 0xd1, 0x3e, 0x71, 0x48, 0x24, 0xbe,
  0x42, 0x7a, 0x9c, 0xbd, 0xa8, 0x21, 0x84, 0x3e, 0x7c, 0x64, 0xc3, 0x3e,
  0x91, 0xd1, 0x42, 0x3b, 0x5b, 0xe6, 0x94, 0xbd, 0x3a, 0x20, 0x1d, 0xbe,
  0x20, 0xfc, 0xe7, 0xbd, 0x87, 0x47, 0xb2, 0x3e, 0x8f, 0xff, 0x87, 0x3e,
  0x94, 0xbb, 0x11, 0xbe, 0xb1, 0xc9, 0xdf, 0xbd, 0x0c, 0x53, 0x03, 0xbe,
  0x91, 0xc5, 0x92, 0x3e, 0x0a, 0xf7, 0x47, 0x3e, 0xb7, 0xe6, 0xcc, 0x3e,
  0xb3, 0x0e, 0xf1, 0x3d, 0x7f, 0x0d, 0x98, 0xbe, 0xe4, 0x0b, 0x8a, 0xbe,
  0x07, 0x9b, 0xfa, 0xbe, 0xb4, 0x7c, 0x93, 0xbe, 0xe6, 0xb1, 0x79, 0x3e,
  0xde, 0xd7, 0x2b, 0x3e, 0x56, 0x54, 0x66, 0x3e, 0xc6, 0xc9, 0x76, 0x3e,
  0x84, 0xa8, 0xb9, 0xbe, 0x00, 0xac, 0xf1, 0xbb, 0x53, 0xe2, 0x68, 0xbe,
  0x4a, 0x1f, 0xd6, 0xbe, 0x71, 0xed, 0x87, 0xbe, 0x70, 0x3a, 0x71, 0x3d,
  0xcd, 0x8e, 0xd2, 0xbe, 0xa7, 0x4d, 0x3d, 0xbe, 0x5b, 0x61, 0xfa, 0x3e,
  0xfd, 0x1c, 0xed, 0x3e, 0xb5, 0x5f, 0x8d, 0x3e, 0x28, 0x03, 0x00, 0xbe,
  0xd8, 0x5c, 0x39, 0x3e, 0xe1, 0x75, 0x85, 0x3e, 0xcb, 0x7e, 0x97, 0x3e,
  0x2f, 0xb1, 0xb3, 0xbe, 0xe0, 0x84, 0xdf, 0x3c, 0xed, 0x92, 0x8a, 0x3e,
  0x12, 0x0f, 0x95, 0xbe, 0xa1, 0xb6, 0x8d, 0x3d, 0xd0, 0x1d, 0xa9, 0xbe,
  0xae, 0x9d, 0x7d, 0x3e, 0x47, 0x0f, 0xa6, 0x3e, 0xcc, 0x5c, 0xcd, 0xbe,
  0xe3, 0x64, 0x56, 0xbe, 0x23, 0x37, 0x23, 0xbe, 0x73, 0xfc, 0x8c, 0xbe,
  0xa3, 0xeb, 0x3f, 0xbe, 0xac, 0x72, 0xbe, 0xbe, 0x20, 0x4f, 0x2f, 0x3c,
  0x16, 0x48, 0x5f, 0x3e, 0x74, 0x3f, 0xa9, 0x3d, 0x97, 0xc0, 0xd8, 0x3e,
  0x63, 0x0e, 0xb8, 0xbe, 0x2e, 0x9e, 0x81, 0x3e, 0x7f, 0xd7, 0x98, 0x3d,
  0x81, 0xee, 0x75, 0xbe, 0xed, 0xec, 0x99, 0x3e, 0xf9, 0x6e, 0x5f, 0xbe,
  0x99, 0x40, 0x25, 0xbf, 0x3e, 0x0f, 0x25, 0x3f, 0xd0, 0x02, 0xe4, 0xbe,
  0xf6, 0xf4, 0x98, 0x3e, 0x9f, 0xb2, 0x15, 0x3e, 0x32, 0x7d, 0x12, 0x3f,
  0x34, 0xcc, 0xd8, 0x3d, 0xd4, 0x44, 0x22, 0xbe, 0xe4, 0x92, 0xf8, 0x3d,
  0x1d, 0xbf, 0xd8, 0xbe, 0xef, 0x33, 0x81, 0xbc, 0xd3, 0x35, 0xfd, 0x3e,
  0xdf, 0x2c, 0xa2, 0x3e, 0x72, 0xc4, 0x9d, 0xbe, 0x6e, 0xc7, 0x91, 0xbe,
  0xed, 0x8e, 0x85, 0x3e, 0x02, 0xfa, 0x85, 0x3e, 0x65, 0x6c, 0x3b, 0xbe,
  0xf9, 0xeb, 0x47, 0xbe, 0xc9, 0x17, 0xab, 0xbb, 0x40, 0x74, 0x47, 0x3e,
  0x18, 0x0d, 0x0d, 0xbe, 0x99, 0xeb, 0xa6, 0x3e, 0x08, 0x28, 0x7d, 0xbd,
  0x2e, 0x3f, 0x00, 0x3e, 0xe4, 0x24, 0xa9, 0x3d, 0x4f, 0xce, 0x97, 0xbe,
  0x53, 0x05, 0x0c, 0xbe, 0xa4, 0xdd, 0x88, 0x3e, 0x18, 0x25, 0x02, 0xbd,
  0x31, 0x77, 0x82, 0x3e, 0xb0, 0x44, 0x82, 0x3c, 0x28, 0x8e, 0x07, 0x3c,
  0x15, 0xbe, 0xe2, 0xbe, 0xc6, 0x87, 0x13, 0xbe, 0x20, 0x3a, 0x13, 0xbe,
  0x4b, 0x8d, 0x68, 0xbe, 0x05, 0x9f, 0x96, 0x3e, 0x1c, 0xc6, 0xb4, 0xbe,
  0xa1, 0x28, 0x9d, 0x3e, 0x2e, 0xdb, 0x62, 0x3e, 0x10, 0x01, 0xf0, 0x3c,
  0x42, 0xc4, 0x03, 0xbe, 0x1d, 0xba, 0x8b, 0x3e, 0x64, 0x56, 0xd5, 0xbe,
  0x24, 0x22, 0x1e, 0xbe, 0x60, 0x87, 0x9f, 0xbd, 0x98, 0x5d, 0x64, 0xbd,
  0x62, 0xb6, 0x63, 0x3e, 0xac, 0x44, 0x98, 0x3d, 0x56, 0x6e, 0x8e, 0xbe,
  0x8c, 0xfc, 0x8a, 0xbe, 0xd4, 0xd9, 0xa0, 0xbd, 0x80, 0xf1, 0xe5, 0x3b,
  0x8e, 0x8a, 0x38, 0xbe, 0xf1, 0xbd, 0xa6, 0x3e, 0xd0, 0x65, 0x07, 0x3d,
  0xfc, 0xac, 0x37, 0xbe, 0x78, 0xb2, 0x4f, 0xbe, 0x00, 0xa4, 0xaa, 0xbe,
  0xe8, 0x8e, 0x28, 0xbe, 0xa3, 0xd6, 0x96, 0x3e, 0x7c, 0x13, 0xb6, 0xbd,
  0xba, 0xbb, 0x92, 0xbe, 0xd6, 0x90, 0xa7, 0xbe, 0xfc, 0xe2, 0x9f, 0xbe,
  0x78, 0x00, 0x60, 0x3e, 0x67, 0x7a, 0x66, 0xbe, 0x1d, 0xc7, 0x9c, 0x3e,
  0xb8, 0xec, 0x63, 0x3e, 0x06, 0x33, 0x08, 0xbe, 0xc0, 0x21, 0xb1, 0x3c,
  0xda, 0x9f, 0x10, 0x3e, 0xca, 0x24, 0x36, 0x3e, 0xe9, 0x0d, 0x3a, 0xbe,
  0xd9, 0xc0, 0x12, 0xbf, 0x81, 0x5a, 0xee, 0xbd, 0x7a, 0x8b, 0xa4, 0xbe,
  0xa0, 0x3f, 0xc2, 0xbc, 0xd4, 0x5a, 0xc3, 0xbe, 0x4d, 0x82, 0x21, 0x3e,
  0x66, 0xa2, 0x04, 0x3f, 0x67, 0x0b, 0xd0, 0x3d, 0x59, 0xde, 0x7e, 0x3e,
  0xaf, 0x18, 0xfe, 0x3d, 0xc4, 0x7b, 0xf3, 0x3d, 0x17, 0x3d, 0xdd, 0x3e,
  0xb7, 0xa5, 0xc9, 0x3e, 0xba, 0x9c, 0x92, 0xbe, 0x00, 0xd5, 0x4f, 0xbb,
  0xba, 0xf2, 0x05, 0x3d, 0xba, 0xe7, 0x27, 0xbf, 0x17, 0x4b, 0x96, 0x3e,
  0x89, 0xcb, 0xce, 0xbe, 0x82, 0xf1, 0x3e, 0x3e, 0xbf, 0x0c, 0xae, 0x3e,
  0xfc, 0xaf, 0x74, 0xbe, 0x15, 0xef, 0xf4, 0xbb, 0x56, 0xff, 0xff, 0xff,
  0x04, 0x00, 0x00, 0x00, 0x40, 0x00, 0x00, 0x00, 0xde, 0xad, 0x04, 0x3f,
  0x65, 0x34, 0x05, 0x3f, 0xe5, 0x2b, 0xe5, 0x3e, 0x48, 0x2e, 0x2e, 0x3e,
  0x56, 0xeb, 0x1c, 0xbe, 0x20, 0x17, 0xa0, 0xbd, 0xa5, 0xf9, 0xbe, 0xbe,
  0x60, 0x45, 0x33, 0xbe, 0x3d, 0xab, 0xe1, 0x3e, 0x46, 0xa1, 0x97, 0x3e,
  0xf9, 0xa5, 0x5f, 0x3e, 0xe5, 0x1e, 0x15, 0xbf, 0xd0, 0x1d, 0xb9, 0xbe,
  0x42, 0x86, 0xc5, 0xbe, 0x9c, 0x6a, 0x12, 0x3f, 0xea, 0xd5, 0x67, 0x3d,
  0xa2, 0xff, 0xff, 0xff, 0x04, 0x00, 0x00, 0x00, 0x40, 0x00, 0x00, 0x00,
  0xc7, 0x63, 0x06, 0x3f, 0x75, 0xbc, 0x45, 0x3c, 0x60, 0x77, 0x5a, 0xbe,
  0xa1, 0x21, 0xbf, 0x3c, 0xd0, 0x4a, 0x95, 0xbe, 0x24, 0x30, 0x1b, 0xbb,
  0x36, 0x6b, 0x48, 0x3c, 0xbe, 0x27, 0xf5, 0x3d, 0x7e, 0xce, 0x8f, 0x3d,
  0x2b, 0x23, 0xaa, 0x3e, 0x0a, 0xaf, 0x83, 0xbe, 0x09, 0x90, 0xd6, 0xbc,
  0x00, 0x00, 0x00, 0x00, 0x00, 0x00, 0x00, 0x00, 0xb2, 0xe6, 0x5d, 0x3d,
  0xf9, 0x84, 0x08, 0xbc, 0xee, 0xff, 0xff, 0xff, 0x04, 0x00, 0x00, 0x00,
  0x04, 0x00, 0x00, 0x00, 0x41, 0xaa, 0x54, 0xbe, 0x00, 0x00, 0x06, 0x00,
  0x08, 0x00, 0x04, 0x00, 0x06, 0x00, 0x00, 0x00, 0x04, 0x00, 0x00, 0x00,
  0x40, 0x00, 0x00, 0x00, 0xf9, 0x7c, 0x9d, 0x3e, 0xcb, 0x43, 0xfe, 0xbb,
  0x89, 0x73, 0x83, 0x3e, 0x03, 0xfd, 0xd8, 0xbe, 0x00, 0x00, 0x00, 0x00,
  0x00, 0x00, 0x00, 0x00, 0x00, 0x00, 0x00, 0x00, 0x00, 0x00, 0x00, 0x00,
  0x6b, 0x4a, 0x15, 0xbf, 0xb5, 0xc5, 0x59, 0xbf, 0xa1, 0x26, 0x8d, 0xbd,
  0x00, 0x00, 0x00, 0x00, 0x00, 0x00, 0x00, 0x00, 0x00, 0x00, 0x00, 0x00,
  0xb0, 0x86, 0x1b, 0xbf, 0x94, 0x96, 0x55, 0x3f, 0x54, 0xfb, 0xff, 0xff,
  0x58, 0xfb, 0xff, 0xff, 0x0f, 0x00, 0x00, 0x00, 0x4d, 0x4c, 0x49, 0x52,
  0x20, 0x43, 0x6f, 0x6e, 0x76, 0x65, 0x72, 0x74, 0x65, 0x64, 0x2e, 0x00,
  0x01, 0x00, 0x00, 0x00, 0x14, 0x00, 0x00, 0x00, 0x00, 0x00, 0x0e, 0x00,
  0x18, 0x00, 0x14, 0x00, 0x10, 0x00, 0x0c, 0x00, 0x08, 0x00, 0x04, 0x00,
  0x0e, 0x00, 0x00, 0x00, 0x14, 0x00, 0x00, 0x00, 0x1c, 0x00, 0x00, 0x00,
  0xd8, 0x00, 0x00, 0x00, 0xdc, 0x00, 0x00, 0x00, 0xe0, 0x00, 0x00, 0x00,
  0x04, 0x00, 0x00, 0x00, 0x6d, 0x61, 0x69, 0x6e, 0x00, 0x00, 0x00, 0x00,
  0x03, 0x00, 0x00, 0x00, 0x80, 0x00, 0x00, 0x00, 0x38, 0x00, 0x00, 0x00,
  0x04, 0x00, 0x00, 0x00, 0x9a, 0xff, 0xff, 0xff, 0x10, 0x00, 0x00, 0x00,
  0x00, 0x00, 0x00, 0x08, 0x0c, 0x00, 0x00, 0x00, 0x10, 0x00, 0x00, 0x00,
  0xd0, 0xfb, 0xff, 0xff, 0x01, 0x00, 0x00, 0x00, 0x09, 0x00, 0x00, 0x00,
  0x03, 0x00, 0x00, 0x00, 0x08, 0x00, 0x00, 0x00, 0x06, 0x00, 0x00, 0x00,
  0x02, 0x00, 0x00, 0x00, 0xca, 0xff, 0xff, 0xff, 0x10, 0x00, 0x00, 0x00,
  0x00, 0x00, 0x00, 0x08, 0x10, 0x00, 0x00, 0x00, 0x14, 0x00, 0x00, 0x00,
  0xba, 0xff, 0xff, 0xff, 0x00, 0x00, 0x00, 0x01, 0x01, 0x00, 0x00, 0x00,
  0x08, 0x00, 0x00, 0x00, 0x03, 0x00, 0x00, 0x00, 0x07, 0x00, 0x00, 0x00,
  0x05, 0x00, 0x00, 0x00, 0x03, 0x00, 0x00, 0x00, 0x00, 0x00, 0x0e, 0x00,
  0x16, 0x00, 0x00, 0x00, 0x10, 0x00, 0x0c, 0x00, 0x0b, 0x00, 0x04, 0x00,
  0x0e, 0x00, 0x00, 0x00, 0x18, 0x00, 0x00, 0x00, 0x00, 0x00, 0x00, 0x08,
  0x18, 0x00, 0x00, 0x00, 0x1c, 0x00, 0x00, 0x00, 0x00, 0x00, 0x06, 0x00,
  0x08, 0x00, 0x07, 0x00, 0x06, 0x00, 0x00, 0x00, 0x00, 0x00, 0x00, 0x01,
  0x01, 0x00, 0x00, 0x00, 0x07, 0x00, 0x00, 0x00, 0x03, 0x00, 0x00, 0x00,
  0x00, 0x00, 0x00, 0x00, 0x04, 0x00, 0x00, 0x00, 0x01, 0x00, 0x00, 0x00,
  0x01, 0x00, 0x00, 0x00, 0x09, 0x00, 0x00, 0x00, 0x01, 0x00, 0x00, 0x00,
  0x00, 0x00, 0x00, 0x00, 0x0a, 0x00, 0x00, 0x00, 0x5c, 0x03, 0x00, 0x00,
  0xf8, 0x02, 0x00, 0x00, 0x94, 0x02, 0x00, 0x00, 0x40, 0x02, 0x00, 0x00,
  0xfc, 0x01, 0x00, 0x00, 0xb4, 0x01, 0x00, 0x00, 0x6c, 0x01, 0x00, 0x00,
  0xe8, 0x00, 0x00, 0x00, 0x5c, 0x00, 0x00, 0x00, 0x04, 0x00, 0x00, 0x00,
  0xe0, 0xfc, 0xff, 0xff, 0x14, 0x00, 0x00, 0x00, 0x1c, 0x00, 0x00, 0x00,
  0x1c, 0x00, 0x00, 0x00, 0x0a, 0x00, 0x00, 0x00, 0x34, 0x00, 0x00, 0x00,
  0x02, 0x00, 0x00, 0x00, 0xff, 0xff, 0xff, 0xff, 0x01, 0x00, 0x00, 0x00,
  0xcc, 0xfc, 0xff, 0xff, 0x19, 0x00, 0x00, 0x00, 0x53, 0x74, 0x61, 0x74,
  0x65, 0x66, 0x75, 0x6c, 0x50, 0x61, 0x72, 0x74, 0x69, 0x74, 0x69, 0x6f,
  0x6e, 0x65, 0x64, 0x43, 0x61, 0x6c, 0x6c, 0x3a, 0x30, 0x00, 0x00, 0x00,
  0x02, 0x00, 0x00, 0x00, 0x01, 0x00, 0x00, 0x00, 0x01, 0x00, 0x00, 0x00,
  0x34, 0xfd, 0xff, 0xff, 0x14, 0x00, 0x00, 0x00, 0x1c, 0x00, 0x00, 0x00,
  0x1c, 0x00, 0x00, 0x00, 0x09, 0x00, 0x00, 0x00, 0x68, 0x00, 0x00, 0x00,
  0x02, 0x00, 0x00, 0x00, 0xff, 0xff, 0xff, 0xff, 0x10, 0x00, 0x00, 0x00,
  0x20, 0xfd, 0xff, 0xff, 0x4c, 0x00, 0x00, 0x00, 0x73, 0x65, 0x71, 0x75,
  0x65, 0x6e, 0x74, 0x69, 0x61, 0x6c, 0x2f, 0x64, 0x65, 0x6e, 0x73, 0x65,
  0x5f, 0x31, 0x2f, 0x4d, 0x61, 0x74, 0x4d, 0x75, 0x6c, 0x3b, 0x73, 0x65,
  0x71, 0x75, 0x65, 0x6e, 0x74, 0x69, 0x61, 0x6c, 0x2f, 0x64, 0x65, 0x6e,
  0x73, 0x65, 0x5f, 0x31, 0x2f, 0x52, 0x65, 0x6c, 0x75, 0x3b, 0x73, 0x65,
  0x71, 0x75, 0x65, 0x6e, 0x74, 0x69, 0x61, 0x6c, 0x2f, 0x64, 0x65, 0x6e,
  0x73, 0x65, 0x5f, 0x31, 0x2f, 0x42, 0x69, 0x61, 0x73, 0x41, 0x64, 0x64,
  0x00, 0x00, 0x00, 0x00, 0x02, 0x00, 0x00, 0x00, 0x01, 0x00, 0x00, 0x00,
  0x10, 0x00, 0x00, 0x00, 0xbc, 0xfd, 0xff, 0xff, 0x14, 0x00, 0x00, 0x00,
  0x1c, 0x00, 0x00, 0x00, 0x1c, 0x00, 0x00, 0x00, 0x08, 0x00, 0x00, 0x00,
  0x60, 0x00, 0x00, 0x00, 0x02, 0x00, 0x00, 0x00, 0xff, 0xff, 0xff, 0xff,
  0x10, 0x00, 0x00, 0x00, 0xa8, 0xfd, 0xff, 0xff, 0x46, 0x00, 0x00, 0x00,
  0x73, 0x65, 0x71, 0x75, 0x65, 0x6e, 0x74, 0x69, 0x61, 0x6c, 0x2f, 0x64,
  0x65, 0x6e, 0x73, 0x65, 0x2f, 0x4d, 0x61, 0x74, 0x4d, 0x75, 0x6c, 0x3b,
  0x73, 0x65, 0x71, 0x75, 0x65, 0x6e, 0x74, 0x69, 0x61, 0x6c, 0x2f, 0x64,
  0x65, 0x6e, 0x73, 0x65, 0x2f, 0x52, 0x65, 0x6c, 0x75, 0x3b, 0x73, 0x65,
  0x71, 0x75, 0x65, 0x6e, 0x74, 0x69, 0x61, 0x6c, 0x2f, 0x64, 0x65, 0x6e,
  0x73, 0x65, 0x2f, 0x42, 0x69, 0x61, 0x73, 0x41, 0x64, 0x64, 0x00, 0x00,
  0x02, 0x00, 0x00, 0x00, 0x01, 0x00, 0x00, 0x00, 0x10, 0x00, 0x00, 0x00,
  0x96, 0xfe, 0xff, 0xff, 0x10, 0x00, 0x00, 0x00, 0x10, 0x00, 0x00, 0x00,
  0x07, 0x00, 0x00, 0x00, 0x28, 0x00, 0x00, 0x00, 0x18, 0xfe, 0xff, 0xff,
  0x19, 0x00, 0x00, 0x00, 0x73, 0x65, 0x71, 0x75, 0x65, 0x6e, 0x74, 0x69,
  0x61, 0x6c, 0x2f, 0x64, 0x65, 0x6e, 0x73, 0x65, 0x5f, 0x32, 0x2f, 0x4d,
  0x61, 0x74, 0x4d, 0x75, 0x6c, 0x00, 0x00, 0x00, 0x02, 0x00, 0x00, 0x00,
  0x01, 0x00, 0x00, 0x00, 0x10, 0x00, 0x00, 0x00, 0xda, 0xfe, 0xff, 0xff,
  0x10, 0x00, 0x00, 0x00, 0x10, 0x00, 0x00, 0x00, 0x06, 0x00, 0x00, 0x00,
  0x28, 0x00, 0x00, 0x00, 0x5c, 0xfe, 0xff, 0xff, 0x19, 0x00, 0x00, 0x00,
  0x73, 0x65, 0x71, 0x75, 0x65, 0x6e, 0x74, 0x69, 0x61, 0x6c, 0x2f, 0x64,
  0x65, 0x6e, 0x73, 0x65, 0x5f, 0x31, 0x2f, 0x4d, 0x61, 0x74, 0x4d, 0x75,
  0x6c, 0x00, 0x00, 0x00, 0x02, 0x00, 0x00, 0x00, 0x10, 0x00, 0x00, 0x00,
  0x10, 0x00, 0x00, 0x00, 0x1e, 0xff, 0xff, 0xff, 0x10, 0x00, 0x00, 0x00,
  0x10, 0x00, 0x00, 0x00, 0x05, 0x00, 0x00, 0x00, 0x24, 0x00, 0x00, 0x00,
  0xa0, 0xfe, 0xff, 0xff, 0x17, 0x00, 0x00, 0x00, 0x73, 0x65, 0x71, 0x75,
  0x65, 0x6e, 0x74, 0x69, 0x61, 0x6c, 0x2f, 0x64, 0x65, 0x6e, 0x73, 0x65,
  0x2f, 0x4d, 0x61, 0x74, 0x4d, 0x75, 0x6c, 0x00, 0x02, 0x00, 0x00, 0x00,
  0x10, 0x00, 0x00, 0x00, 0x01, 0x00, 0x00, 0x00, 0x5e, 0xff, 0xff, 0xff,
  0x10, 0x00, 0x00, 0x00, 0x10, 0x00, 0x00, 0x00, 0x04, 0x00, 0x00, 0x00,
  0x38, 0x00, 0x00, 0x00, 0xe0, 0xfe, 0xff, 0xff, 0x29, 0x00, 0x00, 0x00,
  0x73, 0x65, 0x71, 0x75, 0x65, 0x6e, 0x74, 0x69, 0x61, 0x6c, 0x2f, 0x64,
  0x65, 0x6e, 0x73, 0x65, 0x5f, 0x31, 0x2f, 0x42, 0x69, 0x61, 0x73, 0x41,
  0x64, 0x64, 0x2f, 0x52, 0x65, 0x61, 0x64, 0x56, 0x61, 0x72, 0x69, 0x61,
  0x62, 0x6c, 0x65, 0x4f, 0x70, 0x00, 0x00, 0x00, 0x01, 0x00, 0x00, 0x00,
  0x10, 0x00, 0x00, 0x00, 0xae, 0xff, 0xff, 0xff, 0x10, 0x00, 0x00, 0x00,
  0x10, 0x00, 0x00, 0x00, 0x03, 0x00, 0x00, 0x00, 0x38, 0x00, 0x00, 0x00,
  0x30, 0xff, 0xff, 0xff, 0x29, 0x00, 0x00, 0x00, 0x73, 0x65, 0x71, 0x75,
  0x65, 0x6e, 0x74, 0x69, 0x61, 0x6c, 0x2f, 0x64, 0x65, 0x6e, 0x73, 0x65,
  0x5f, 0x32, 0x2f, 0x42, 0x69, 0x61, 0x73, 0x41, 0x64, 0x64, 0x2f, 0x52,
  0x65, 0x61, 0x64, 0x56, 0x61, 0x72, 0x69, 0x61, 0x62, 0x6c, 0x65, 0x4f,
  0x70, 0x00, 0x00, 0x00, 0x01, 0x00, 0x00, 0x00, 0x01, 0x00, 0x00, 0x00,
  0x00, 0x00, 0x0e, 0x00, 0x14, 0x00, 0x10, 0x00, 0x00, 0x00, 0x0c, 0x00,
  0x08, 0x00, 0x04, 0x00, 0x0e, 0x00, 0x00, 0x00, 0x10, 0x00, 0x00, 0x00,
  0x10, 0x00, 0x00, 0x00, 0x02, 0x00, 0x00, 0x00, 0x34, 0x00, 0x00, 0x00,
  0x90, 0xff, 0xff, 0xff, 0x27, 0x00, 0x00, 0x00, 0x73, 0x65, 0x71, 0x75,
  0x65, 0x6e, 0x74, 0x69, 0x61, 0x6c, 0x2f, 0x64, 0x65, 0x6e, 0x73, 0x65,
  0x2f, 0x42, 0x69, 0x61, 0x73, 0x41, 0x64, 0x64, 0x2f, 0x52, 0x65, 0x61,
  0x64, 0x56, 0x61, 0x72, 0x69, 0x61, 0x62, 0x6c, 0x65, 0x4f, 0x70, 0x00,
  0x01, 0x00, 0x00, 0x00, 0x10, 0x00, 0x00, 0x00, 0x14, 0x00, 0x18, 0x00,
  0x14, 0x00, 0x00, 0x00, 0x10, 0x00, 0x0c, 0x00, 0x08, 0x00, 0x00, 0x00,
  0x00, 0x00, 0x04, 0x00, 0x14, 0x00, 0x00, 0x00, 0x14, 0x00, 0x00, 0x00,
  0x20, 0x00, 0x00, 0x00, 0x20, 0x00, 0x00, 0x00, 0x01, 0x00, 0x00, 0x00,
  0x3c, 0x00, 0x00, 0x00, 0x02, 0x00, 0x00, 0x00, 0xff, 0xff, 0xff, 0xff,
  0x01, 0x00, 0x00, 0x00, 0x04, 0x00, 0x04, 0x00, 0x04, 0x00, 0x00, 0x00,
  0x1d, 0x00, 0x00, 0x00, 0x73, 0x65, 0x72, 0x76, 0x69, 0x6e, 0x67, 0x5f,
  0x64, 0x65, 0x66, 0x61, 0x75, 0x6c, 0x74, 0x5f, 0x64, 0x65, 0x6e, 0x73,
  0x65, 0x5f, 0x69, 0x6e, 0x70, 0x75, 0x74, 0x3a, 0x30, 0x00, 0x00, 0x00,
  0x02, 0x00, 0x00, 0x00, 0x01, 0x00, 0x00, 0x00, 0x01, 0x00, 0x00, 0x00,
  0x01, 0x00, 0x00, 0x00, 0x10, 0x00, 0x00, 0x00, 0x0c, 0x00, 0x0c, 0x00,
  0x0b, 0x00, 0x00, 0x00, 0x00, 0x00, 0x04, 0x00, 0x0c, 0x00, 0x00, 0x00,
  0x09, 0x00, 0x00, 0x00, 0x00, 0x00, 0x00, 0x09
};

#endif //Z2SINE_MODEL_H